{
  "version": "1.0",
  "truncation": null,
  "padding": null,
  "added_tokens": [
    {
      "id": 0,
      "content": "<unk>",
      "single_word": false,
      "lstrip": false,
      "rstrip": false,
      "normalized": false,
      "special": true
    },
    {
      "id": 1,
      "content": "<s>",
      "single_word": false,
      "lstrip": false,
      "rstrip": false,
      "normalized": false,
      "special": true
    },
    {
      "id": 2,
      "content": "</s>",
      "single_word": false,
      "lstrip": false,
      "rstrip": false,
      "normalized": false,
      "special": true
    },
    {
      "id": 3,
      "content": "<pad>",
      "single_word": false,
      "lstrip": false,
      "rstrip": false,
      "normalized": false,
      "special": true
    },
    {
      "id": 4,
      "content": "[MASK]",
      "single_word": false,
      "lstrip": false,
      "rstrip": false,
      "normalized": false,
      "special": true
    }
  ],
  "normalizer": {
    "type": "NFKC"
  },
  "pre_tokenizer": {
    "type": "ByteLevel",
    "add_prefix_space": true,
    "trim_offsets": true,
    "use_regex": true
  },
  "post_processor": {
    "type": "TemplateProcessing",
    "single": [
      {
        "SpecialToken": {
          "id": "<s>",
          "type_id": 0
        }
      },
      {
        "Sequence": {
          "id": "A",
          "type_id": 0
        }
      },
      {
        "SpecialToken": {
          "id": "</s>",
          "type_id": 0
        }
      }
    ],
    "pair": [
      {
        "SpecialToken": {
          "id": "<s>",
          "type_id": 0
        }
      },
      {
        "Sequence": {
          "id": "A",
          "type_id": 0
        }
      },
      {
        "SpecialToken": {
          "id": "</s>",
          "type_id": 0
        }
      },
      {
        "Sequence": {
          "id": "B",
          "type_id": 1
        }
      },
      {
        "SpecialToken": {
          "id": "</s>",
          "type_id": 1
        }
      }
    ],
    "special_tokens": {
      "</s>": {
        "id": "</s>",
        "ids": [
          2
        ],
        "tokens": [
          "</s>"
        ]
      },
      "<s>": {
        "id": "<s>",
        "ids": [
          1
        ],
        "tokens": [
          "<s>"
        ]
      }
    }
  },
  "decoder": {
    "type": "ByteLevel",
    "add_prefix_space": true,
    "trim_offsets": true,
    "use_regex": true
  },
  "model": {
    "type": "BPE",
    "dropout": null,
    "unk_token": "<unk>",
    "continuing_subword_prefix": null,
    "end_of_word_suffix": null,
    "fuse_unk": false,
    "byte_fallback": false,
    "ignore_merges": false,
    "vocab": {
      "<unk>": 0,
      "<s>": 1,
      "</s>": 2,
      "<pad>": 3,
      "[MASK]": 4,
      "!": 5,
      "\"": 6,
      "#": 7,
      "$": 8,
      "%": 9,
      "&": 10,
      "'": 11,
      "(": 12,
      ")": 13,
      "*": 14,
      "+": 15,
      ",": 16,
      "-": 17,
      ".": 18,
      "/": 19,
      "0": 20,
      "1": 21,
      "2": 22,
      "3": 23,
      "4": 24,
      "5": 25,
      "6": 26,
      "7": 27,
      "8": 28,
      "9": 29,
      ":": 30,
      ";": 31,
      "<": 32,
      "=": 33,
      ">": 34,
      "?": 35,
      "@": 36,
      "A": 37,
      "B": 38,
      "C": 39,
      "D": 40,
      "E": 41,
      "F": 42,
      "G": 43,
      "H": 44,
      "I": 45,
      "J": 46,
      "K": 47,
      "L": 48,
      "M": 49,
      "N": 50,
      "O": 51,
      "P": 52,
      "Q": 53,
      "R": 54,
      "S": 55,
      "T": 56,
      "U": 57,
      "V": 58,
      "W": 59,
      "X": 60,
      "Y": 61,
      "Z": 62,
      "[": 63,
      "\\": 64,
      "]": 65,
      "^": 66,
      "_": 67,
      "`": 68,
      "a": 69,
      "b": 70,
      "c": 71,
      "d": 72,
      "e": 73,
      "f": 74,
      "g": 75,
      "h": 76,
      "i": 77,
      "j": 78,
      "k": 79,
      "l": 80,
      "m": 81,
      "n": 82,
      "o": 83,
      "p": 84,
      "q": 85,
      "r": 86,
      "s": 87,
      "t": 88,
      "u": 89,
      "v": 90,
      "w": 91,
      "x": 92,
      "y": 93,
      "z": 94,
      "{": 95,
      "|": 96,
      "}": 97,
      "~": 98,
      "¡": 99,
      "¢": 100,
      "£": 101,
      "¤": 102,
      "¥": 103,
      "¦": 104,
      "§": 105,
      "¨": 106,
      "©": 107,
      "ª": 108,
      "«": 109,
      "¬": 110,
      "®": 111,
      "¯": 112,
      "°": 113,
      "±": 114,
      "²": 115,
      "³": 116,
      "´": 117,
      "µ": 118,
      "¶": 119,
      "·": 120,
      "¸": 121,
      "¹": 122,
      "º": 123,
      "»": 124,
      "¼": 125,
      "½": 126,
      "¾": 127,
      "¿": 128,
      "Â": 129,
      "Ã": 130,
      "Ä": 131,
      "Å": 132,
      "Æ": 133,
      "Ç": 134,
      "È": 135,
      "É": 136,
      "Ê": 137,
      "Ë": 138,
      "Ì": 139,
      "Í": 140,
      "Î": 141,
      "Ï": 142,
      "Ð": 143,
      "Ñ": 144,
      "Ò": 145,
      "Ó": 146,
      "Ô": 147,
      "Õ": 148,
      "Ö": 149,
      "×": 150,
      "Ø": 151,
      "Ù": 152,
      "Ú": 153,
      "Û": 154,
      "Ü": 155,
      "Ý": 156,
      "Þ": 157,
      "ß": 158,
      "à": 159,
      "á": 160,
      "â": 161,
      "ã": 162,
      "ä": 163,
      "å": 164,
      "æ": 165,
      "ç": 166,
      "è": 167,
      "é": 168,
      "ê": 169,
      "ë": 170,
      "ì": 171,
      "í": 172,
      "ï": 173,
      "ð": 174,
      "ĉ": 175,
      "Ċ": 176,
      "Ġ": 177,
      "Ģ": 178,
      "ģ": 179,
      "Ĥ": 180,
      "ĥ": 181,
      "Ħ": 182,
      "ħ": 183,
      "Ĩ": 184,
      "ĩ": 185,
      "Ī": 186,
      "ī": 187,
      "Ĭ": 188,
      "ĭ": 189,
      "Į": 190,
      "į": 191,
      "İ": 192,
      "ı": 193,
      "Ĳ": 194,
      "ĳ": 195,
      "Ĵ": 196,
      "ĵ": 197,
      "Ķ": 198,
      "ķ": 199,
      "ĸ": 200,
      "Ĺ": 201,
      "ĺ": 202,
      "Ļ": 203,
      "ļ": 204,
      "Ľ": 205,
      "ľ": 206,
      "Ŀ": 207,
      "ŀ": 208,
      "Ł": 209,
      "ł": 210,
      "Ń": 211,
      "Ġd": 212,
      "on": 213,
      "Ġc": 214,
      "er": 215,
      "Ġs": 216,
      "Ġp": 217,
      "Ġa": 218,
      "re": 219,
      "to": 220,
      "in": 221,
      "en": 222,
      "ta": 223,
      "ti": 224,
      "la": 225,
      "Ġdi": 226,
      "ri": 227,
      "el": 228,
      "ra": 229,
      "li": 230,
      "Ġe": 231,
      "te": 232,
      "le": 233,
      "an": 234,
      "un": 235,
      "Ġm": 236,
      "Ġi": 237,
      "ro": 238,
      "Ġn": 239,
      "zi": 240,
      "si": 241,
      "Ġin": 242,
      "he": 243,
      "Ġdel": 244,
      "âĢ": 245,
      "Ġf": 246,
      "or": 247,
      "ia": 248,
      "Ġun": 249,
      "es": 250,
      "Ġv": 251,
      "one": 252,
      "ca": 253,
      "lo": 254,
      "Ġla": 255,
      "Ġcon": 256,
      "Ġper": 257,
      "qu": 258,
      "os": 259,
      "om": 260,
      "Ġal": 261,
      "Ġg": 262,
      "Ġche": 263,
      "Ġt": 264,
      "Ġil": 265,
      "âĢĻ": 266,
      "ar": 267,
      "co": 268,
      "ci": 269,
      "men": 270,
      "Ġqu": 271,
      "al": 272,
      "di": 273,
      "et": 274,
      "do": 275,
      "zione": 276,
      "Ġri": 277,
      "Ãł": 278,
      "ma": 279,
      "so": 280,
      "Ġo": 281,
      "Ã¨": 282,
      "za": 283,
      "Ġsu": 284,
      "no": 285,
      "ere": 286,
      "Ġl": 287,
      "io": 288,
      "ĠÃ¨": 289,
      "Ġb": 290,
      "Ġsi": 291,
      "Ġde": 292,
      "Ġpro": 293,
      "Ġle": 294,
      "ĠS": 295,
      "va": 296,
      "ĠC": 297,
      "vi": 298,
      "mo": 299,
      "mp": 300,
      "sa": 301,
      "tu": 302,
      "ol": 303,
      "Ġcom": 304,
      "Ġda": 305,
      "gli": 306,
      "ono": 307,
      "Ġan": 308,
      "ch": 309,
      "oni": 310,
      "bi": 311,
      "gg": 312,
      "ce": 313,
      "tto": 314,
      "ter": 315,
      "tÃł": 316,
      "ĠP": 317,
      "che": 318,
      "Ġse": 319,
      "da": 320,
      "Ġma": 321,
      "is": 322,
      "Ġuna": 323,
      "pp": 324,
      "Ġdella": 325,
      "Ġca": 326,
      "se": 327,
      "tra": 328,
      "Ġnon": 329,
      "Ġnel": 330,
      "Ġre": 331,
      "vo": 332,
      "tti": 333,
      "ĠM": 334,
      "ni": 335,
      "ĠI": 336,
      "Ġpre": 337,
      "ĠA": 338,
      "Ġpi": 339,
      "ve": 340,
      "Ġh": 341,
      "ĠL": 342,
      "era": 343,
      "mi": 344,
      "fi": 345,
      "na": 346,
      "de": 347,
      "mente": 348,
      "Ġso": 349,
      "Ġpo": 350,
      "ina": 351,
      "Ġfa": 352,
      "ano": 353,
      "ona": 354,
      "sp": 355,
      "uo": 356,
      "bb": 357,
      "tro": 358,
      "Ġpa": 359,
      "ten": 360,
      "ran": 361,
      "cia": 362,
      "zza": 363,
      "Ġdal": 364,
      "Ġvi": 365,
      "ĠD": 366,
      "eri": 367,
      "tan": 368,
      "Ġsp": 369,
      "Ġ(": 370,
      "ĠâĢ": 371,
      "Ġques": 372,
      "Ġtra": 373,
      "Ġtu": 374,
      "ssi": 375,
      "ver": 376,
      "Ã¹": 377,
      "ui": 378,
      "tta": 379,
      "ga": 380,
      "mento": 381,
      "Ġdei": 382,
      "zioni": 383,
      "Ġ1": 384,
      "Ġ2": 385,
      "Ġu": 386,
      "Ġci": 387,
      "po": 388,
      "ĠG": 389,
      "enti": 390,
      "Ġlo": 391,
      "Ġpar": 392,
      "ss": 393,
      "Ġsta": 394,
      "ini": 395,
      "ĠpiÃ¹": 396,
      "gi": 397,
      "Ġsono": 398,
      "cc": 399,
      "Ġte": 400,
      "ĠR": 401,
      "ĠT": 402,
      "ente": 403,
      "tre": 404,
      "Ġha": 405,
      "ali": 406,
      "ĠB": 407,
      "ff": 408,
      "ine": 409,
      "tri": 410,
      "enza": 411,
      "Ġdo": 412,
      "tori": 413,
      "ĠF": 414,
      "Ġdell": 415,
      "Ġra": 416,
      "ĠE": 417,
      "Ġgi": 418,
      "ino": 419,
      "con": 420,
      "ĠN": 421,
      "pa": 422,
      "Ġcome": 423,
      "Ġalla": 424,
      "ru": 425,
      "Ġdelle": 426,
      "sti": 427,
      "Ġne": 428,
      "Ġmo": 429,
      "ani": 430,
      "mb": 431,
      "Ġmi": 432,
      "Ġsul": 433,
      "Ġcos": 434,
      "Ġanche": 435,
      "..": 436,
      "sta": 437,
      "hi": 438,
      "go": 439,
      "me": 440,
      "ul": 441,
      "âĢĿ": 442,
      "Ġme": 443,
      "chi": 444,
      "ggi": 445,
      "pi": 446,
      "Ġpos": 447,
      "Ã²": 448,
      "ando": 449,
      "du": 450,
      "ale": 451,
      "ero": 452,
      "tura": 453,
      "lu": 454,
      "sso": 455,
      "ĠâĢľ": 456,
      "Ġad": 457,
      "rio": 458,
      "Ġpu": 459,
      "zz": 460,
      "etto": 461,
      "anno": 462,
      "gu": 463,
      "Ġfor": 464,
      "Ġpri": 465,
      "ĠV": 466,
      "Ġco": 467,
      "Ġli": 468,
      "Ġquel": 469,
      "bili": 470,
      "are": 471,
      "Ġgli": 472,
      "Ġsc": 473,
      "tare": 474,
      "ven": 475,
      "uto": 476,
      "Ġimp": 477,
      "Ġall": 478,
      "Ġ20": 479,
      "ria": 480,
      "bile": 481,
      "Ġcomp": 482,
      "ene": 483,
      "cu": 484,
      "Ġav": 485,
      "Ġba": 486,
      "etti": 487,
      "Ġess": 488,
      "tali": 489,
      "Ġar": 490,
      "ggio": 491,
      "Ġprop": 492,
      "Ġfi": 493,
      "Ġquesto": 494,
      "iamo": 495,
      "fica": 496,
      "sione": 497,
      "Ġno": 498,
      "Ġdu": 499,
      "cco": 500,
      "Ġinter": 501,
      "Ġapp": 502,
      "ĠLa": 503,
      "Ã©": 504,
      "Ġed": 505,
      "glio": 506,
      "dere": 507,
      "uni": 508,
      "esso": 509,
      "zia": 510,
      "sc": 511,
      "tte": 512,
      "gni": 513,
      "ĠU": 514,
      "ziona": 515,
      "gna": 516,
      "ne": 517,
      "ssa": 518,
      "tico": 519,
      "per": 520,
      "menti": 521,
      "Ġnella": 522,
      "Ġessere": 523,
      "Ġai": 524,
      "tato": 525,
      "ĠMa": 526,
      "for": 527,
      "Ã¬": 528,
      "00": 529,
      "ĠIn": 530,
      "Ġchi": 531,
      "Ġti": 532,
      "Ġmol": 533,
      "Ġcui": 534,
      "Ġcol": 535,
      "st": 536,
      "sto": 537,
      "ele": 538,
      "Ġsa": 539,
      "Ġna": 540,
      "Ġgra": 541,
      "Ġva": 542,
      "gra": 543,
      "Qu": 544,
      "ĠO": 545,
      "ĠIl": 546,
      "Ġcor": 547,
      "gno": 548,
      "Ġsemp": 549,
      "Ġsuo": 550,
      "Ġpers": 551,
      "anti": 552,
      "Ġter": 553,
      "Ġalle": 554,
      "Ġta": 555,
      "Ġnos": 556,
      "mpo": 557,
      "Ġparte": 558,
      "ing": 559,
      "glia": 560,
      "Ġcre": 561,
      "Ġvol": 562,
      "zio": 563,
      "etta": 564,
      "lare": 565,
      "ffi": 566,
      "ana": 567,
      "ren": 568,
      "Ġnuo": 569,
      "tica": 570,
      "ze": 571,
      "cca": 572,
      "ĠâĢĵ": 573,
      "Ġris": 574,
      "chÃ©": 575,
      "Ġat": 576,
      "Ġ201": 577,
      "Ġtro": 578,
      "bo": 579,
      "essi": 580,
      "cio": 581,
      "Ġto": 582,
      "um": 583,
      "cor": 584,
      "endo": 585,
      "Ġpres": 586,
      "Ġgior": 587,
      "Ġlavo": 588,
      "ba": 589,
      "ste": 590,
      "Ġver": 591,
      "pe": 592,
      "Ġdegli": 593,
      "der": 594,
      "Ġ3": 595,
      "ĠCa": 596,
      "Ġdalla": 597,
      "esti": 598,
      "dia": 599,
      "bbli": 600,
      "Ġloro": 601,
      "ello": 602,
      "sci": 603,
      "Ġgio": 604,
      "Ġtutti": 605,
      "Ġsolo": 606,
      "ron": 607,
      "enta": 608,
      "Il": 609,
      "tore": 610,
      "Ġhanno": 611,
      "Ġ-": 612,
      "zzo": 613,
      "La": 614,
      "Ġvo": 615,
      "bbe": 616,
      "ge": 617,
      "ante": 618,
      "Ġpor": 619,
      "Ġanni": 620,
      "Ġven": 621,
      "il": 622,
      "uro": 623,
      "vol": 624,
      "mma": 625,
      "Ġprima": 626,
      "Ġbi": 627,
      "uti": 628,
      "Ġacc": 629,
      "Ġser": 630,
      "ese": 631,
      "ĠH": 632,
      "ĠPa": 633,
      "erca": 634,
      "ess": 635,
      "ppo": 636,
      "ur": 637,
      "...": 638,
      "Ġdue": 639,
      "Ġsua": 640,
      "Ġqual": 641,
      "fa": 642,
      "sse": 643,
      "elli": 644,
      "anto": 645,
      "Ġsempre": 646,
      "ena": 647,
      "Ġste": 648,
      "gia": 649,
      "tiva": 650,
      "ella": 651,
      "Ġmon": 652,
      "Ġgen": 653,
      "Ġor": 654,
      "Ġpossi": 655,
      "Ġsia": 656,
      "Ġquesta": 657,
      "rin": 658,
      "Ġ\"": 659,
      "ĠpuÃ²": 660,
      "Ġve": 661,
      "Ġmen": 662,
      "sid": 663,
      "Ġgran": 664,
      "essa": 665,
      "Ġmolto": 666,
      "forma": 667,
      "Ġrisp": 668,
      "tivo": 669,
      "ie": 670,
      "Ġstato": 671,
      "rat": 672,
      "ĠQu": 673,
      "Ġtutto": 674,
      "ura": 675,
      "ĠCon": 676,
      "Ġabb": 677,
      "cch": 678,
      "lan": 679,
      "Ġesp": 680,
      "tante": 681,
      "man": 682,
      "dio": 683,
      "pera": 684,
      "Ġdisp": 685,
      "bilitÃł": 686,
      "Ġuno": 687,
      "Ġindi": 688,
      "cqu": 689,
      "lizza": 690,
      "ome": 691,
      "mm": 692,
      "cora": 693,
      "Ġen": 694,
      "Ġro": 695,
      ").": 696,
      "Ġfar": 697,
      "tru": 698,
      "Ġdire": 699,
      "Ġspe": 700,
      "ĠLe": 701,
      "Ġman": 702,
      "Ġch": 703,
      "Ġcons": 704,
      "at": 705,
      "Ġtempo": 706,
      "ento": 707,
      "In": 708,
      "Ġogni": 709,
      "ĠPer": 710,
      "Ġsulla": 711,
      "gn": 712,
      "osa": 713,
      "Ġpersona": 714,
      "Ġuti": 715,
      "Ġdiver": 716,
      "us": 717,
      "indi": 718,
      "Ġpun": 719,
      "Ġpubbli": 720,
      "Ġsenza": 721,
      "Ġfare": 722,
      "mbi": 723,
      "uta": 724,
      "Ġga": 725,
      "ffer": 726,
      "ette": 727,
      "tt": 728,
      "esta": 729,
      "vano": 730,
      "Ġpen": 731,
      "Ġquali": 732,
      "),": 733,
      "inis": 734,
      "ĠW": 735,
      "Ġstra": 736,
      "vitÃł": 737,
      "ĠAn": 738,
      "Ġpoi": 739,
      "ĠSi": 740,
      "Ġdis": 741,
      "Ġsca": 742,
      "rÃł": 743,
      "ĠperchÃ©": 744,
      "Ġnei": 745,
      "Ġvita": 746,
      "Ġalc": 747,
      "que": 748,
      "Ġric": 749,
      "Ġfatto": 750,
      "tin": 751,
      "rie": 752,
      "Ġ4": 753,
      "Ġdopo": 754,
      "Ġcar": 755,
      "Ġera": 756,
      "Ġes": 757,
      "Ġho": 758,
      "via": 759,
      "rare": 760,
      "Ġconf": 761,
      "ĠRe": 762,
      "Ġ5": 763,
      "ĠSe": 764,
      "Ġlib": 765,
      "Ġcontro": 766,
      "ccia": 767,
      "etÃł": 768,
      "Ġdall": 769,
      "Ġmodo": 770,
      "Ġquando": 771,
      "Ġ19": 772,
      "Ġcer": 773,
      "Ġancora": 774,
      "ĠAl": 775,
      "Ġsos": 776,
      "Ġservi": 777,
      "tale": 778,
      "Ġsecon": 779,
      "Ġnell": 780,
      "ttura": 781,
      "Ġau": 782,
      "Ġquello": 783,
      "Ġvia": 784,
      "Ġgiu": 785,
      "res": 786,
      "elle": 787,
      "Ġdove": 788,
      "gui": 789,
      "zionale": 790,
      "Ġaltri": 791,
      "ltre": 792,
      "ĠcosÃ¬": 793,
      "amo": 794,
      "une": 795,
      "anza": 796,
      "Ġatti": 797,
      "ad": 798,
      "Ġw": 799,
      "Ġfo": 800,
      "mpi": 801,
      "Ġgu": 802,
      "tati": 803,
      "ĠMi": 804,
      "Ġproprio": 805,
      "Ġpia": 806,
      "mina": 807,
      "Ġforma": 808,
      "Ġvis": 809,
      "inter": 810,
      "vere": 811,
      "colo": 812,
      "litÃł": 813,
      "ggiun": 814,
      "Ġbu": 815,
      "vare": 816,
      "âĢĿ.": 817,
      "Ġchia": 818,
      "almente": 819,
      "ON": 820,
      "enze": 821,
      "Ġsotto": 822,
      "ggia": 823,
      "Ġstori": 824,
      "Ġfon": 825,
      "Ġstu": 826,
      "zo": 827,
      "ppor": 828,
      "Ġcan": 829,
      "talia": 830,
      "cchi": 831,
      "tamente": 832,
      "Ġfu": 833,
      "Ġos": 834,
      "Ġprof": 835,
      "Ġprog": 836,
      "Ġconc": 837,
      "Ġquanto": 838,
      "pre": 839,
      "zie": 840,
      "cato": 841,
      "omi": 842,
      "arÃł": 843,
      "Ġsen": 844,
      "Ġmondo": 845,
      "ĠJ": 846,
      "zzi": 847,
      "alizza": 848,
      "pri": 849,
      "Ġquesti": 850,
      "olo": 851,
      "Ġnelle": 852,
      "tere": 853,
      "Ġdov": 854,
      "sia": 855,
      "razione": 856,
      "Ġtratta": 857,
      "ck": 858,
      "Ġcen": 859,
      "tiche": 860,
      "Ġlavoro": 861,
      "Ġprodo": 862,
      "Ġlegg": 863,
      "Ġposs": 864,
      "Ġsco": 865,
      "lmente": 866,
      "esto": 867,
      "ord": 868,
      "tanti": 869,
      "tanto": 870,
      "tivi": 871,
      "ĠDi": 872,
      "ĠgiÃł": 873,
      "gono": 874,
      "Ġsop": 875,
      "Ġsal": 876,
      "ĠK": 877,
      "Ġave": 878,
      "Ġsin": 879,
      "elo": 880,
      "Ġcomple": 881,
      "Ġparti": 882,
      "Ġini": 883,
      "ed": 884,
      "Â»": 885,
      "ure": 886,
      "ranno": 887,
      "Ġten": 888,
      "Ġmar": 889,
      "rante": 890,
      "osi": 891,
      "lla": 892,
      "Ġcir": 893,
      "tua": 894,
      "Ġquella": 895,
      "Ġtec": 896,
      "ture": 897,
      "mer": 898,
      "Ġimpor": 899,
      "ostra": 900,
      "rsi": 901,
      "Ġpoli": 902,
      "ĠCom": 903,
      "ĠsarÃł": 904,
      "unque": 905,
      "Ġuni": 906,
      "Â«": 907,
      "anta": 908,
      "ER": 909,
      "Ġsol": 910,
      "Ġgrande": 911,
      "Ġcaso": 912,
      "Per": 913,
      "Ġstru": 914,
      "osta": 915,
      "Ġarri": 916,
      "tive": 917,
      "it": 918,
      "Ġspa": 919,
      "Ġquindi": 920,
      "ane": 921,
      "Ġinf": 922,
      "esa": 923,
      "denti": 924,
      "Ġfun": 925,
      "ciale": 926,
      "Ġese": 927,
      "ĠGi": 928,
      "ble": 929,
      "eli": 930,
      "gina": 931,
      "lica": 932,
      "Ġscri": 933,
      "Ġdai": 934,
      "rato": 935,
      "Ġnec": 936,
      "Ġben": 937,
      "Ġmiglio": 938,
      "Ġacqu": 939,
      "Ġfino": 940,
      "Ġitali": 941,
      "Ġvolta": 942,
      "Ġcosa": 943,
      "Ġeuro": 944,
      "Ġaff": 945,
      "omo": 946,
      "Ġcomuni": 947,
      "Ġfin": 948,
      "Ġsiste": 949,
      "sioni": 950,
      "Ġbene": 951,
      "oma": 952,
      "col": 953,
      "ĠMar": 954,
      "Ġinforma": 955,
      "tici": 956,
      "ĠPro": 957,
      "Ġul": 958,
      "ok": 959,
      "tazione": 960,
      "Ġmom": 961,
      "Ġconos": 962,
      "Ġnostro": 963,
      "lazione": 964,
      "gis": 965,
      "Ġnum": 966,
      "Ġcu": 967,
      "tr": 968,
      "Ġcapi": 969,
      "Ġpartico": 970,
      "Ġpersone": 971,
      "ssimo": 972,
      "gani": 973,
      "Ġpassa": 974,
      "uno": 975,
      "Ġtutte": 976,
      "Ġsti": 977,
      "ĠNon": 978,
      "Ġdes": 979,
      "scia": 980,
      "Ġdom": 981,
      "Ġcondi": 982,
      "Ġtre": 983,
      "ell": 984,
      "Ġquale": 985,
      "una": 986,
      "gione": 987,
      "chia": 988,
      "Ġrip": 989,
      "Ġdeci": 990,
      "Ġ6": 991,
      "Ġmis": 992,
      "Ġeff": 993,
      "Ġdalle": 994,
      "Ġpossono": 995,
      "Ġcli": 996,
      "cen": 997,
      "Ġsicu": 998,
      "mpa": 999,
      "Ġmani": 1000,
      "tor": 1001,
      "dare": 1002,
      "tina": 1003,
      "tenza": 1004,
      "ĠNa": 1005,
      "Ġpicco": 1006,
      "Ġtras": 1007,
      "Ġlu": 1008,
      "Ġallo": 1009,
      "met": 1010,
      "Ġprimo": 1011,
      "ulti": 1012,
      "Ġcasa": 1013,
      "tano": 1014,
      "Ġcal": 1015,
      "Ġstata": 1016,
      "Ġcri": 1017,
      "Ġattra": 1018,
      "Ġesi": 1019,
      "usi": 1020,
      "oso": 1021,
      "Ġviene": 1022,
      "Ġstesso": 1023,
      "feri": 1024,
      "fatti": 1025,
      "tui": 1026,
      "cci": 1027,
      "ghi": 1028,
      "vato": 1029,
      "lore": 1030,
      "Ġpossibile": 1031,
      "Ġdon": 1032,
      "rinci": 1033,
      "ho": 1034,
      "usa": 1035,
      "guar": 1036,
      "Ġprodu": 1037,
      "Ġnuovo": 1038,
      "Ġ200": 1039,
      "teria": 1040,
      "dente": 1041,
      "20": 1042,
      "care": 1043,
      "âĢĿ,": 1044,
      "line": 1045,
      "citÃł": 1046,
      "Ġdiven": 1047,
      "ĠRi": 1048,
      "com": 1049,
      "gine": 1050,
      "Ġz": 1051,
      "verso": 1052,
      "Ġmai": 1053,
      "Ġfra": 1054,
      "Ġcontin": 1055,
      "Ġcontra": 1056,
      "Ġconsi": 1057,
      "Ġoltre": 1058,
      "smo": 1059,
      "mon": 1060,
      "ĠSa": 1061,
      "tando": 1062,
      "Ġpotre": 1063,
      "Ġoggi": 1064,
      "pen": 1065,
      "edi": 1066,
      "Ġlun": 1067,
      "Ġsito": 1068,
      "ĠÂ«": 1069,
      "osto": 1070,
      "ĠVi": 1071,
      "zien": 1072,
      "Ġdello": 1073,
      "Ġmaggio": 1074,
      "and": 1075,
      "TI": 1076,
      "tutto": 1077,
      "trib": 1078,
      "ei": 1079,
      "ffici": 1080,
      "tanza": 1081,
      "Ġrisul": 1082,
      "llo": 1083,
      "eni": 1084,
      "Ġon": 1085,
      "mis": 1086,
      "tten": 1087,
      "EN": 1088,
      "mbre": 1089,
      "vilu": 1090,
      "Ġfine": 1091,
      "Ġrichi": 1092,
      "Ġauto": 1093,
      "Ġaltre": 1094,
      "dre": 1095,
      "Ġutilizza": 1096,
      "Ġprinci": 1097,
      "Ġfe": 1098,
      "Ġsempli": 1099,
      "ggior": 1100,
      "gre": 1101,
      "Ġmet": 1102,
      "Ġproble": 1103,
      "Ġtor": 1104,
      "ser": 1105,
      "Ġopera": 1106,
      "sie": 1107,
      "Ġnoi": 1108,
      "Ġgiorno": 1109,
      "vece": 1110,
      "Ġricor": 1111,
      "qui": 1112,
      "Ġpe": 1113,
      "Ġsecondo": 1114,
      "Ġfoto": 1115,
      "glie": 1116,
      "Ġrealizza": 1117,
      "Ġmili": 1118,
      "lari": 1119,
      "Ġmomento": 1120,
      "mpio": 1121,
      "TA": 1122,
      "Ġgo": 1123,
      "lato": 1124,
      "ĠPo": 1125,
      "tata": 1126,
      "Ġele": 1127,
      "lia": 1128,
      "ĠFa": 1129,
      "Ġfami": 1130,
      "Ġtuo": 1131,
      "cina": 1132,
      "Ġnostra": 1133,
      "ĠUn": 1134,
      "Ġsucc": 1135,
      "ssione": 1136,
      "Ġvisi": 1137,
      "vero": 1138,
      "Ġcit": 1139,
      "Ġora": 1140,
      "Ġnatura": 1141,
      "Ġsuoi": 1142,
      "ĠPi": 1143,
      "cce": 1144,
      "ha": 1145,
      "Ġer": 1146,
      "Ġgiorni": 1147,
      "Ġincon": 1148,
      "Ġconten": 1149,
      "Ġagli": 1150,
      "inistra": 1151,
      "Ġsistema": 1152,
      "TO": 1153,
      "Ġbamb": 1154,
      "torio": 1155,
      "teri": 1156,
      "Ġ7": 1157,
      "cere": 1158,
      "Ġmedi": 1159,
      "Ġ10": 1160,
      "cri": 1161,
      "ĠcittÃł": 1162,
      "ĠDa": 1163,
      "Ġpunto": 1164,
      "gio": 1165,
      "fo": 1166,
      "Ġsvilu": 1167,
      "Le": 1168,
      "Ġren": 1169,
      "ĠBa": 1170,
      "logi": 1171,
      "Ġinvece": 1172,
      "Ġdiri": 1173,
      "Ġel": 1174,
      "Ġsui": 1175,
      "imp": 1176,
      "esi": 1177,
      "ÃĪ": 1178,
      "Ġcla": 1179,
      "ĠLo": 1180,
      "Ġmentre": 1181,
      "orta": 1182,
      "Ġdati": 1183,
      "Ġsegui": 1184,
      "tion": 1185,
      "ĠItalia": 1186,
      "use": 1187,
      "Ġinc": 1188,
      "ua": 1189,
      "ganizza": 1190,
      "rezza": 1191,
      "Ġori": 1192,
      "arti": 1193,
      "Ġabbiamo": 1194,
      "Ġcolle": 1195,
      "vin": 1196,
      "arsi": 1197,
      "Ġricerca": 1198,
      "Ġmeno": 1199,
      "ppres": 1200,
      "Ġqua": 1201,
      "Ġscel": 1202,
      "ton": 1203,
      "Ġqui": 1204,
      "Ġsuper": 1205,
      "Ġnuova": 1206,
      "Ġqualche": 1207,
      "Ġore": 1208,
      "ard": 1209,
      "Ġassi": 1210,
      "Ġavere": 1211,
      "cazione": 1212,
      "val": 1213,
      "erie": 1214,
      "Ġasp": 1215,
      "Ġgenera": 1216,
      "Ġalcuni": 1217,
      "Ġnecessa": 1218,
      "mato": 1219,
      "Ġaltro": 1220,
      "Ġliv": 1221,
      "Ġoff": 1222,
      "vole": 1223,
      "esse": 1224,
      "ber": 1225,
      "Ġcarat": 1226,
      "dono": 1227,
      "Se": 1228,
      "Ġstoria": 1229,
      "erÃł": 1230,
      "Ġrappres": 1231,
      "Ġfre": 1232,
      "ute": 1233,
      "lio": 1234,
      "vvero": 1235,
      "Ġinfatti": 1236,
      "ĠCo": 1237,
      "lano": 1238,
      "orre": 1239,
      "gere": 1240,
      "fer": 1241,
      "Ġnumero": 1242,
      "Ġdeve": 1243,
      "eno": 1244,
      "||": 1245,
      "Ġstati": 1246,
      "Ġattraverso": 1247,
      "âĢľ": 1248,
      "ĠCi": 1249,
      "Ġbase": 1250,
      "Ġtutta": 1251,
      "Ġcrea": 1252,
      "ttore": 1253,
      "ciali": 1254,
      "Ġmio": 1255,
      "Ġcul": 1256,
      "Ġposi": 1257,
      "ĠMo": 1258,
      "ĠSo": 1259,
      "LI": 1260,
      "Ġgesti": 1261,
      "Ġrela": 1262,
      "rattutto": 1263,
      "Ġgiov": 1264,
      "dica": 1265,
      "ĠRa": 1266,
      "Ġgiorna": 1267,
      "venti": 1268,
      "sidera": 1269,
      "Ġtecni": 1270,
      "eb": 1271,
      "AN": 1272,
      "ĠperÃ²": 1273,
      "Ġraga": 1274,
      "Ġsoli": 1275,
      "lori": 1276,
      "Ġparteci": 1277,
      "Ġsulle": 1278,
      "ccio": 1279,
      "Ġaver": 1280,
      "RE": 1281,
      "Ġrispetto": 1282,
      "ppa": 1283,
      "anda": 1284,
      "Ġasso": 1285,
      "gua": 1286,
      "Ġtipo": 1287,
      "Ġ8": 1288,
      "Ġloca": 1289,
      "Ġulti": 1290,
      "scita": 1291,
      "ĠLi": 1292,
      "ea": 1293,
      "sce": 1294,
      "fini": 1295,
      "Ġcamb": 1296,
      "vento": 1297,
      "iore": 1298,
      "tari": 1299,
      "Ġevi": 1300,
      "ĠattivitÃł": 1301,
      "Ġverso": 1302,
      "ddi": 1303,
      "Ġbiso": 1304,
      "sieme": 1305,
      "Ġsare": 1306,
      "Ġmor": 1307,
      "Ġrin": 1308,
      "ĠPre": 1309,
      "labo": 1310,
      "gh": 1311,
      "isce": 1312,
      "RI": 1313,
      "mbra": 1314,
      "Ġconta": 1315,
      "Ġgru": 1316,
      "Ġambi": 1317,
      "Ġracc": 1318,
      "Ġspeci": 1319,
      "rica": 1320,
      "tente": 1321,
      "ĠDo": 1322,
      "Ġpes": 1323,
      "rebbe": 1324,
      "Ġmin": 1325,
      "cono": 1326,
      "ĠDe": 1327,
      "etro": 1328,
      "Ġass": 1329,
      "Ġprogra": 1330,
      "Con": 1331,
      "Ġmolti": 1332,
      "ssima": 1333,
      "deo": 1334,
      "Ġqualc": 1335,
      "meno": 1336,
      "Ġsoprattutto": 1337,
      "Ġ9": 1338,
      "Ġaveva": 1339,
      "ose": 1340,
      "Ġcosti": 1341,
      "Ġprodotti": 1342,
      "Ġsoci": 1343,
      "Ġdurante": 1344,
      "uzione": 1345,
      "Ġconse": 1346,
      "Ġdice": 1347,
      "Ġmia": 1348,
      "ccu": 1349,
      "Ġnor": 1350,
      "este": 1351,
      "tuale": 1352,
      "fici": 1353,
      "ĠAr": 1354,
      "Ġfil": 1355,
      "spon": 1356,
      "tar": 1357,
      "all": 1358,
      "bbero": 1359,
      "ĠciÃ²": 1360,
      "zionali": 1361,
      "Ġsenti": 1362,
      "Ġinformazioni": 1363,
      "Ġpren": 1364,
      "tter": 1365,
      "Ġanno": 1366,
      "ranti": 1367,
      "Ġfuo": 1368,
      "onale": 1369,
      "bito": 1370,
      "sare": 1371,
      "Ġcirca": 1372,
      "Ġpra": 1373,
      "ĠSan": 1374,
      "Ġterri": 1375,
      "Ġqueste": 1376,
      "Ġesempio": 1377,
      "mar": 1378,
      "Ġparticolare": 1379,
      "orso": 1380,
      "Ġrego": 1381,
      "cchia": 1382,
      "Ġlega": 1383,
      "Ġdisposi": 1384,
      "uso": 1385,
      "esco": 1386,
      "Ġmateria": 1387,
      "sidente": 1388,
      "Ġgrazie": 1389,
      "Ġmod": 1390,
      "Ġentra": 1391,
      "scri": 1392,
      "Ġsue": 1393,
      "dita": 1394,
      "Ġami": 1395,
      "cano": 1396,
      "Ġspesso": 1397,
      "ĠFran": 1398,
      "as": 1399,
      "Ġ15": 1400,
      "ll": 1401,
      "cro": 1402,
      "Ġtanto": 1403,
      "dÃ¬": 1404,
      "Ġlin": 1405,
      "ort": 1406,
      "dini": 1407,
      "ercato": 1408,
      "Ġprote": 1409,
      "Ġvuo": 1410,
      "erra": 1411,
      "Ġpresenta": 1412,
      "Ġservizio": 1413,
      "Ġaggiun": 1414,
      "Ġide": 1415,
      "Ġcompa": 1416,
      "gue": 1417,
      "Ġpoco": 1418,
      "Ġfonda": 1419,
      "sitÃł": 1420,
      "anni": 1421,
      "app": 1422,
      "gen": 1423,
      "Ġedi": 1424,
      "Ġterm": 1425,
      "eter": 1426,
      "Ġsemplice": 1427,
      "ĠMon": 1428,
      "Ġprogetto": 1429,
      "ppure": 1430,
      "tenti": 1431,
      "rre": 1432,
      "ĠqualitÃł": 1433,
      "bre": 1434,
      "Ġveri": 1435,
      "Ġparo": 1436,
      "ww": 1437,
      "ĠRo": 1438,
      "zienda": 1439,
      "Ġdisponi": 1440,
      "Ġsor": 1441,
      "Ġriguar": 1442,
      "Ġbo": 1443,
      "Ġtele": 1444,
      "ĠRoma": 1445,
      "Ġappro": 1446,
      "Ġmusi": 1447,
      "Ġinsieme": 1448,
      "Ġluo": 1449,
      "Ġ18": 1450,
      "Ġval": 1451,
      "Ġins": 1452,
      "Ma": 1453,
      "Ġr": 1454,
      "ĠFi": 1455,
      "Ġfaci": 1456,
      "ZI": 1457,
      "Ġcentro": 1458,
      "Ġnostri": 1459,
      "ut": 1460,
      "Ġfer": 1461,
      "coli": 1462,
      "Ġlascia": 1463,
      "ghe": 1464,
      "Ġconte": 1465,
      "ĠChi": 1466,
      "Ġraggiun": 1467,
      "Ġnegli": 1468,
      "Ġstan": 1469,
      "Ġlui": 1470,
      "gliere": 1471,
      "Ġecon": 1472,
      "stica": 1473,
      "Ġsull": 1474,
      "Ġporta": 1475,
      "denza": 1476,
      "Ġsiamo": 1477,
      "Ġorganizza": 1478,
      "ĠZ": 1479,
      "rata": 1480,
      "pporto": 1481,
      "Ġsvol": 1482,
      "Ġcorso": 1483,
      "Ġmeglio": 1484,
      "Ġservizi": 1485,
      "Ġvos": 1486,
      "Ġsitua": 1487,
      "Ġprofessi": 1488,
      "Ġquasi": 1489,
      "Ġproc": 1490,
      "vono": 1491,
      "Ġscon": 1492,
      "Ġmodi": 1493,
      "Ġutili": 1494,
      "Ġarti": 1495,
      "dato": 1496,
      "Ġvolte": 1497,
      "Non": 1498,
      "Ġpropria": 1499,
      "Ġcultura": 1500,
      "Ġpresso": 1501,
      "RA": 1502,
      "Ġcambia": 1503,
      "am": 1504,
      "Ġraccon": 1505,
      "enzi": 1506,
      "Ġotten": 1507,
      "tolo": 1508,
      "gare": 1509,
      "Ġ,": 1510,
      "EL": 1511,
      "tenzione": 1512,
      "Ġcura": 1513,
      "ĠNo": 1514,
      "Ġinizia": 1515,
      "Ġpopo": 1516,
      "tino": 1517,
      "Ġquelli": 1518,
      "Ġimma": 1519,
      "mana": 1520,
      "lar": 1521,
      "Ġsetti": 1522,
      "Ġand": 1523,
      "Ġsembra": 1524,
      "Ġlivello": 1525,
      "chio": 1526,
      "ttamente": 1527,
      "Ġperio": 1528,
      "Ġban": 1529,
      "Ġimportante": 1530,
      "Ġgrandi": 1531,
      "Ġam": 1532,
      "ĠsocietÃł": 1533,
      "Ġricon": 1534,
      "ĠTu": 1535,
      "Ġline": 1536,
      "Ġsci": 1537,
      "vamente": 1538,
      "gnifica": 1539,
      "Ġinte": 1540,
      "Ġfos": 1541,
      "stitu": 1542,
      "Ġtrova": 1543,
      "acqu": 1544,
      "Ġvin": 1545,
      "Ġquelle": 1546,
      "ĠpossibilitÃł": 1547,
      "Ġregis": 1548,
      "ĠUni": 1549,
      "Ġdefini": 1550,
      "altÃł": 1551,
      "ĠÃĪ": 1552,
      "Ġk": 1553,
      "Ġgui": 1554,
      "Ġdiversi": 1555,
      "Ġtri": 1556,
      "Ġpropri": 1557,
      "posi": 1558,
      "Ġ0": 1559,
      "ĠDI": 1560,
      "Ġprogramma": 1561,
      "Ġop": 1562,
      "Ġvideo": 1563,
      "erienza": 1564,
      "Ġgrado": 1565,
      "fia": 1566,
      "Â».": 1567,
      "Un": 1568,
      "Ġamm": 1569,
      "Ġpercor": 1570,
      "\".": 1571,
      "Ġprevi": 1572,
      "Ġrice": 1573,
      "ĠSu": 1574,
      "erci": 1575,
      "Ġserie": 1576,
      "Ġio": 1577,
      "veni": 1578,
      "tario": 1579,
      "Ġecc": 1580,
      "ĠGa": 1581,
      "--": 1582,
      "rico": 1583,
      "altro": 1584,
      "ĠrealtÃł": 1585,
      "Ġstessa": 1586,
      "stru": 1587,
      "Ġcapa": 1588,
      "interno": 1589,
      "cente": 1590,
      "Ġcitta": 1591,
      "iori": 1592,
      "Ġlavora": 1593,
      "Ġabi": 1594,
      "Ġann": 1595,
      "Ġlegge": 1596,
      "cchio": 1597,
      "IN": 1598,
      "Ġlimi": 1599,
      "Ġtradi": 1600,
      "Ġscuo": 1601,
      "bietti": 1602,
      "ĠNe": 1603,
      "Ġinterna": 1604,
      "An": 1605,
      "Ġcose": 1606,
      "Al": 1607,
      "Ġclassi": 1608,
      "Ġposto": 1609,
      "ĠUna": 1610,
      "201": 1611,
      "gato": 1612,
      "Ġsignifica": 1613,
      "ede": 1614,
      "tuali": 1615,
      "Ġperf": 1616,
      "ĠCar": 1617,
      "Ġsf": 1618,
      "LE": 1619,
      "ĠLu": 1620,
      "Ġag": 1621,
      "tero": 1622,
      "trice": 1623,
      "000": 1624,
      "Ġotti": 1625,
      "stra": 1626,
      "Ġprodotto": 1627,
      "gle": 1628,
      "gini": 1629,
      "Ġeconomi": 1630,
      "stenza": 1631,
      "verno": 1632,
      "Ġ12": 1633,
      "Ġconsidera": 1634,
      "ĠGo": 1635,
      "Ġfina": 1636,
      "Ġvari": 1637,
      "RO": 1638,
      "Ġness": 1639,
      "terna": 1640,
      "Ġmusica": 1641,
      "tate": 1642,
      "ĠTra": 1643,
      "Ġbambini": 1644,
      "orto": 1645,
      "poli": 1646,
      "zze": 1647,
      "Ġaper": 1648,
      "Ġspie": 1649,
      "Ġinten": 1650,
      "ettore": 1651,
      "ĠPar": 1652,
      "Ġru": 1653,
      "Ġacquis": 1654,
      "Ġnome": 1655,
      "rati": 1656,
      "acc": 1657,
      "Ġim": 1658,
      "Ġpotrebbe": 1659,
      "Ġdiffer": 1660,
      "Ġcausa": 1661,
      "Ġden": 1662,
      "Ġsopra": 1663,
      "Ġperm": 1664,
      "onda": 1665,
      "Ġprincip": 1666,
      "Ġmercato": 1667,
      "Ġcorre": 1668,
      "eria": 1669,
      "Ġforni": 1670,
      "Ġquo": 1671,
      "Ġvengono": 1672,
      "vesti": 1673,
      "Ġprepa": 1674,
      "Ġproblema": 1675,
      "Ġsaranno": 1676,
      "Ġpartecipa": 1677,
      "Ġdim": 1678,
      "Ġracco": 1679,
      "Ġseconda": 1680,
      "Ġsenso": 1681,
      "Ġgruppo": 1682,
      "Ġfilm": 1683,
      "Ġdonne": 1684,
      "tel": 1685,
      "Si": 1686,
      "anzia": 1687,
      "Ġcollabo": 1688,
      "ĠCh": 1689,
      "sato": 1690,
      "rire": 1691,
      "vata": 1692,
      "ulla": 1693,
      "Ġpote": 1694,
      "Ġani": 1695,
      "Ġanti": 1696,
      "be": 1697,
      "Ġcuo": 1698,
      "logia": 1699,
      "Ġesc": 1700,
      "dine": 1701,
      "Ġtua": 1702,
      "pro": 1703,
      "Ġvisto": 1704,
      "altra": 1705,
      "Ġelet": 1706,
      "ĠX": 1707,
      "oste": 1708,
      "uncia": 1709,
      "Ġpubblico": 1710,
      "Ġvelo": 1711,
      "su": 1712,
      "opera": 1713,
      "spi": 1714,
      "30": 1715,
      "Ġmesi": 1716,
      "Ġdiverse": 1717,
      "est": 1718,
      "ĠNel": 1719,
      "Ġvista": 1720,
      "Ġalcune": 1721,
      "sponsa": 1722,
      "Ġsarebbe": 1723,
      "TE": 1724,
      "Ġartico": 1725,
      "dice": 1726,
      "Ġgioco": 1727,
      "au": 1728,
      "Ġriu": 1729,
      "LA": 1730,
      "Ġvero": 1731,
      "Ġcorpo": 1732,
      "Ġmostra": 1733,
      "fico": 1734,
      "Ġdetto": 1735,
      "dendo": 1736,
      "Ġmano": 1737,
      "atti": 1738,
      "Ġconfer": 1739,
      "ĠY": 1740,
      "mentare": 1741,
      "ccupa": 1742,
      "Ġpara": 1743,
      "Ġfuori": 1744,
      "Ġapplica": 1745,
      "Ġblo": 1746,
      "Ġcerca": 1747,
      "ĠEuro": 1748,
      "siasi": 1749,
      "Ġsegna": 1750,
      "Ġcompi": 1751,
      "Ġruo": 1752,
      "Ġnorma": 1753,
      "osti": 1754,
      "ggetti": 1755,
      "SI": 1756,
      "ner": 1757,
      "Ġimpre": 1758,
      "Ġdavvero": 1759,
      "stico": 1760,
      "Ġrappresenta": 1761,
      "ger": 1762,
      "stri": 1763,
      "Ġlungo": 1764,
      "Ġimpe": 1765,
      "Ġdia": 1766,
      "Ġfamiglia": 1767,
      "Ġpresente": 1768,
      "Ġvedere": 1769,
      "vati": 1770,
      "Ġerano": 1771,
      "ft": 1772,
      "Ġali": 1773,
      "rono": 1774,
      "Ġprece": 1775,
      "chÃ¨": 1776,
      "alle": 1777,
      "ordina": 1778,
      "net": 1779,
      "Ġsicurezza": 1780,
      "ĠBi": 1781,
      "Ġresponsa": 1782,
      "cendo": 1783,
      "entra": 1784,
      "Ġseguito": 1785,
      "ĠMe": 1786,
      "Ġtrovare": 1787,
      "Ġnuovi": 1788,
      "Ġweb": 1789,
      "Ġgia": 1790,
      "ossi": 1791,
      "Ġfron": 1792,
      "th": 1793,
      "Ġtecno": 1794,
      "Ġfavo": 1795,
      "ttori": 1796,
      "Ġpoter": 1797,
      "Ġ30": 1798,
      "mai": 1799,
      "esp": 1800,
      "Ġdare": 1801,
      "Ġsubito": 1802,
      "Ġesa": 1803,
      "orse": 1804,
      "Ġsosten": 1805,
      "Ġaffi": 1806,
      "ssimi": 1807,
      "Ġnuove": 1808,
      "Ġqualsiasi": 1809,
      "Ġregi": 1810,
      "Ġeffet": 1811,
      "CO": 1812,
      "duzione": 1813,
      "Ġcap": 1814,
      "Ġriconos": 1815,
      "Ġdocu": 1816,
      "Ġrivol": 1817,
      "quad": 1818,
      "ty": 1819,
      "Ġstrada": 1820,
      "Ġcontrib": 1821,
      "unta": 1822,
      "more": 1823,
      "Ġbra": 1824,
      "Ġperiodo": 1825,
      "omini": 1826,
      "Ġtroppo": 1827,
      "terÃł": 1828,
      "Ġpron": 1829,
      "vvi": 1830,
      "Ġproce": 1831,
      "Ġterritorio": 1832,
      "cra": 1833,
      "Ġeurope": 1834,
      "Ġtale": 1835,
      "ZION": 1836,
      "versa": 1837,
      "Ġinizi": 1838,
      "CA": 1839,
      "ĠQuesto": 1840,
      "nova": 1841,
      "pu": 1842,
      "ĠHo": 1843,
      "media": 1844,
      "Ġvera": 1845,
      "lli": 1846,
      "Ġdeter": 1847,
      "Ġcomunque": 1848,
      "car": 1849,
      "Ġ.": 1850,
      "Ġfunziona": 1851,
      "oltre": 1852,
      "mane": 1853,
      "Ġconfron": 1854,
      "Ġnu": 1855,
      "Ġpiano": 1856,
      "tag": 1857,
      "Ġdesi": 1858,
      "zzazione": 1859,
      "fiche": 1860,
      "vio": 1861,
      "Ġdato": 1862,
      "Ġqualcosa": 1863,
      "Ġcampo": 1864,
      "ĠMilano": 1865,
      "Ġstruttura": 1866,
      "Ġsettore": 1867,
      "Â°": 1868,
      "ĠTi": 1869,
      "ramente": 1870,
      "Ġsera": 1871,
      "mare": 1872,
      "Ġscelta": 1873,
      "rale": 1874,
      "Ġcio": 1875,
      "Italia": 1876,
      "rea": 1877,
      "bbiamo": 1878,
      "Ġgiovani": 1879,
      "Ġstre": 1880,
      "Ġni": 1881,
      "Ġlibro": 1882,
      "Ġesclu": 1883,
      "Ġconsu": 1884,
      "Ġtanti": 1885,
      "Ġforte": 1886,
      "Ġsan": 1887,
      "Ġrif": 1888,
      "Ġspi": 1889,
      "turo": 1890,
      "tendo": 1891,
      "Ġmilioni": 1892,
      "Ġdichia": 1893,
      "Ġsei": 1894,
      "bilmente": 1895,
      "Ġriferi": 1896,
      "Ġthe": 1897,
      "Ġsap": 1898,
      "Ġsviluppo": 1899,
      "Ġ16": 1900,
      "Ġdif": 1901,
      "10": 1902,
      "ambi": 1903,
      "Ġonline": 1904,
      "Ġfis": 1905,
      "ex": 1906,
      "Ġnoti": 1907,
      "ai": 1908,
      "Ġtran": 1909,
      "IA": 1910,
      "Ġdagli": 1911,
      "Ġstudio": 1912,
      "Ġfini": 1913,
      "Ġcin": 1914,
      "Ġterra": 1915,
      "Ġdetta": 1916,
      "ĠCome": 1917,
      "rito": 1918,
      "Ġsuccessi": 1919,
      "Ġcommer": 1920,
      "Ġcolo": 1921,
      "mano": 1922,
      "Ġapri": 1923,
      "Ġgaranti": 1924,
      "Ġluogo": 1925,
      "ork": 1926,
      "torno": 1927,
      "Ġpersonale": 1928,
      "Ġof": 1929,
      "eo": 1930,
      "Ġbian": 1931,
      "cenza": 1932,
      "Ġalmeno": 1933,
      "attro": 1934,
      "Ġsce": 1935,
      "Ġnecessario": 1936,
      "cino": 1937,
      "ĠCor": 1938,
      "Ġminuti": 1939,
      "teris": 1940,
      "Ġmessa": 1941,
      "ide": 1942,
      "ke": 1943,
      "Ġpolitica": 1944,
      "ari": 1945,
      "Ġmoda": 1946,
      "ista": 1947,
      "Ġsegu": 1948,
      "Ġavvi": 1949,
      "par": 1950,
      "Ġeffetti": 1951,
      "ĠGio": 1952,
      "uoi": 1953,
      "Ġsuccesso": 1954,
      "ompa": 1955,
      "ppi": 1956,
      "Ġ14": 1957,
      "Ġmedia": 1958,
      "Ġdol": 1959,
      "!!": 1960,
      "lata": 1961,
      "....": 1962,
      "Ġsiano": 1963,
      "Ġpresenza": 1964,
      "Ġinoltre": 1965,
      "Ġfisi": 1966,
      "Ġospi": 1967,
      "dina": 1968,
      "Ġbre": 1969,
      "50": 1970,
      "ppe": 1971,
      "Ġcoin": 1972,
      "Ġdiff": 1973,
      "Ġsette": 1974,
      "ĠDio": 1975,
      "Ġguida": 1976,
      "Ġcontinua": 1977,
      "ficazione": 1978,
      "diamo": 1979,
      "trui": 1980,
      "cando": 1981,
      "ĠâĢĺ": 1982,
      "Ġvio": 1983,
      "Ġpresenti": 1984,
      "cer": 1985,
      "Ġparole": 1986,
      "ws": 1987,
      "Ġfru": 1988,
      "Ġtema": 1989,
      "Ġforse": 1990,
      "cre": 1991,
      "cati": 1992,
      "Ġspazio": 1993,
      "alla": 1994,
      "Ġener": 1995,
      "Ġquest": 1996,
      "ordo": 1997,
      "onato": 1998,
      "Ġregistra": 1999,
      "Ġuffi": 2000,
      "Ġex": 2001,
      "ĠBer": 2002,
      "mia": 2003,
      "uomo": 2004,
      "bu": 2005,
      "Ġbisogno": 2006,
      "ES": 2007,
      "Ġas": 2008,
      "ccasione": 2009,
      "Ġcondivi": 2010,
      "Ġproduzione": 2011,
      "fon": 2012,
      "Ġpreci": 2013,
      "Ġproblemi": 2014,
      "auto": 2015,
      "Ġdonna": 2016,
      "Ġindivi": 2017,
      "mite": 2018,
      "Ġpratica": 2019,
      "Ġgratui": 2020,
      "Ġcompren": 2021,
      "Ġdiffici": 2022,
      "ggiorna": 2023,
      "Ġmini": 2024,
      "Ġtrattamento": 2025,
      "Ġproprie": 2026,
      "lle": 2027,
      "tur": 2028,
      "ann": 2029,
      "Ġtrasp": 2030,
      "Ġconclu": 2031,
      "Ġanima": 2032,
      "bbi": 2033,
      "Ġamici": 2034,
      "tezza": 2035,
      "Ġriso": 2036,
      "Ġvuole": 2037,
      "Ġdiritto": 2038,
      "Ġ17": 2039,
      "len": 2040,
      "Ġforza": 2041,
      "Ġbar": 2042,
      "min": 2043,
      "ficare": 2044,
      "Ġgestione": 2045,
      "pia": 2046,
      "Ġoppure": 2047,
      "Ġdata": 2048,
      "Ġoffer": 2049,
      "vanti": 2050,
      "ĠEn": 2051,
      "ssocia": 2052,
      "Ġmezzo": 2053,
      "ĠBo": 2054,
      "cher": 2055,
      "ki": 2056,
      "19": 2057,
      "voli": 2058,
      "Ġgioca": 2059,
      "Come": 2060,
      "\",": 2061,
      "unto": 2062,
      "Ġpare": 2063,
      "Ġprimi": 2064,
      "Ġfinanzia": 2065,
      "Ġcampi": 2066,
      "azione": 2067,
      "Ġvoi": 2068,
      "Ġpunti": 2069,
      "Ġmaggior": 2070,
      "Ġacco": 2071,
      "Ġintegra": 2072,
      "gan": 2073,
      "Ġfosse": 2074,
      "den": 2075,
      "Ar": 2076,
      "ĠSono": 2077,
      "Ġstate": 2078,
      "moni": 2079,
      "essione": 2080,
      "Ġpensi": 2081,
      "Ġtorna": 2082,
      "Ġimpa": 2083,
      "ggetto": 2084,
      "Ġprom": 2085,
      "Ġperi": 2086,
      "Ġuomini": 2087,
      "MA": 2088,
      "Ġpresidente": 2089,
      "Ġinvi": 2090,
      "Ġavuto": 2091,
      "Ġdeli": 2092,
      "simo": 2093,
      "Ġvalore": 2094,
      "Ġmolte": 2095,
      "Ġsquad": 2096,
      "Ġada": 2097,
      "Ġallora": 2098,
      "Ġparla": 2099,
      "Ġ13": 2100,
      "av": 2101,
      "ph": 2102,
      "bra": 2103,
      "Nel": 2104,
      "ppia": 2105,
      "zzare": 2106,
      "lina": 2107,
      "cche": 2108,
      "stin": 2109,
      "ato": 2110,
      "dro": 2111,
      "Ġmanif": 2112,
      "Ġandare": 2113,
      "Ġtesta": 2114,
      "OR": 2115,
      "bri": 2116,
      "Ġscuola": 2117,
      "Ġsingo": 2118,
      "Ġcondizioni": 2119,
      "Ġautori": 2120,
      "missione": 2121,
      "Ġtipi": 2122,
      "mati": 2123,
      "SA": 2124,
      "Ġitaliano": 2125,
      "Ġcerto": 2126,
      "segna": 2127,
      "tagoni": 2128,
      "Ġgenerale": 2129,
      "Ġsociale": 2130,
      "Ġnazionale": 2131,
      "Ġriusci": 2132,
      "Ġpol": 2133,
      "ĠGli": 2134,
      "Ġpiu": 2135,
      "Ġcaratteris": 2136,
      "Ġprocesso": 2137,
      "Ġquattro": 2138,
      "tono": 2139,
      "ĠSal": 2140,
      "Ġ24": 2141,
      "tal": 2142,
      "gente": 2143,
      "mera": 2144,
      "Ġfondamen": 2145,
      "Ġacca": 2146,
      "ĠSp": 2147,
      "Ġpercorso": 2148,
      "mica": 2149,
      "Ġmeri": 2150,
      "ass": 2151,
      "Ġdimostra": 2152,
      "Ġtermine": 2153,
      "Ġguar": 2154,
      "Ġcuore": 2155,
      "ttare": 2156,
      "Ġfanno": 2157,
      "ĠNi": 2158,
      "Ġlei": 2159,
      "ĠSer": 2160,
      "gazione": 2161,
      "ostante": 2162,
      "Ġsituazione": 2163,
      "Ġcasi": 2164,
      "Di": 2165,
      "Ġorigina": 2166,
      "Ġpur": 2167,
      "Ġconto": 2168,
      "mail": 2169,
      "Ġzona": 2170,
      "Ġresta": 2171,
      "cata": 2172,
      "cura": 2173,
      "omma": 2174,
      "ĠFor": 2175,
      "Uni": 2176,
      "Ġraccol": 2177,
      "Ġpla": 2178,
      "Ġrete": 2179,
      "Ġ11": 2180,
      "Ġimportanti": 2181,
      "Ġcomune": 2182,
      "taria": 2183,
      "Ġatte": 2184,
      "Ġormai": 2185,
      "Do": 2186,
      "lati": 2187,
      "Ġpochi": 2188,
      "Ġotto": 2189,
      "entale": 2190,
      "Ġfronte": 2191,
      "Ġce": 2192,
      "Ġluce": 2193,
      "biettivo": 2194,
      "mata": 2195,
      "Ġleggere": 2196,
      "Ġultimi": 2197,
      "ĠQ": 2198,
      "dimento": 2199,
      "ware": 2200,
      "Ġmigliori": 2201,
      "Ġtempi": 2202,
      "Ġcontrollo": 2203,
      "Ġfuturo": 2204,
      "pport": 2205,
      "Ġpreve": 2206,
      "Ġcreare": 2207,
      "ddis": 2208,
      "Ġfotogra": 2209,
      "Ġprezzo": 2210,
      "ĠGra": 2211,
      "Ġpaga": 2212,
      "arte": 2213,
      "Ġtramite": 2214,
      "IS": 2215,
      "Ġpaese": 2216,
      "Ġcoinvol": 2217,
      "Ġinvesti": 2218,
      "Ġdedica": 2219,
      "ultimo": 2220,
      "Ġado": 2221,
      "book": 2222,
      "ditÃł": 2223,
      "Ġassocia": 2224,
      "ĠTa": 2225,
      "ĠVer": 2226,
      "Ġrapporto": 2227,
      "ĠTo": 2228,
      "Ġquanti": 2229,
      "acqua": 2230,
      "mu": 2231,
      "Ġ199": 2232,
      "Ġvostro": 2233,
      "Ġmigliore": 2234,
      "omia": 2235,
      "ffica": 2236,
      "Ri": 2237,
      "ĠIN": 2238,
      "Ġformazione": 2239,
      "gica": 2240,
      "ĠcapacitÃł": 2241,
      "Una": 2242,
      "gne": 2243,
      "Ġaffer": 2244,
      "vimento": 2245,
      "mere": 2246,
      "dustri": 2247,
      "Ġmese": 2248,
      "Ĥ¬": 2249,
      "cin": 2250,
      "ĠPu": 2251,
      "âĤ¬": 2252,
      "mio": 2253,
      "trimon": 2254,
      "Ġsensi": 2255,
      "Ġ2016": 2256,
      "cola": 2257,
      "tture": 2258,
      "Ġgenere": 2259,
      "Ġnulla": 2260,
      "Ġconcor": 2261,
      "onali": 2262,
      "Ġtesti": 2263,
      "Pro": 2264,
      "dici": 2265,
      "Ġmanten": 2266,
      "Ġdipen": 2267,
      "mani": 2268,
      "Ġbuona": 2269,
      "Ġprotagoni": 2270,
      "Ġruolo": 2271,
      "Ġletter": 2272,
      "Ġlan": 2273,
      "coltÃł": 2274,
      "Ġfir": 2275,
      "Ġ2017": 2276,
      "gge": 2277,
      "Ġpossa": 2278,
      "Ġsele": 2279,
      "Ġnostre": 2280,
      "Ġpartire": 2281,
      "Ġaffron": 2282,
      "ume": 2283,
      "toria": 2284,
      "Ġrisultati": 2285,
      "Ġpermette": 2286,
      "Ġstile": 2287,
      "genza": 2288,
      "dito": 2289,
      "Ġcivi": 2290,
      "unitÃł": 2291,
      "Ġdisposizione": 2292,
      "uri": 2293,
      "Ġero": 2294,
      "versitÃł": 2295,
      "sh": 2296,
      "Ġtitolo": 2297,
      "Ġov": 2298,
      "Ġfrequ": 2299,
      "Ġpresen": 2300,
      "Ġviaggio": 2301,
      "Ġottenere": 2302,
      "Ġspetta": 2303,
      "mentazione": 2304,
      "Ġpazi": 2305,
      "anze": 2306,
      "ĠAd": 2307,
      "Ġcro": 2308,
      "Ġlinea": 2309,
      "Ġassolu": 2310,
      "Ġstagione": 2311,
      "Ġpagina": 2312,
      "cial": 2313,
      "Ġpiace": 2314,
      "Ġsettimana": 2315,
      "tidi": 2316,
      "Ġpelle": 2317,
      "Ġsosti": 2318,
      "Ġatten": 2319,
      "erto": 2320,
      "rando": 2321,
      "Ġinteress": 2322,
      "logie": 2323,
      "Ġdirettamente": 2324,
      "onica": 2325,
      "Ġpsi": 2326,
      "Ġpassato": 2327,
      "Ġdetermina": 2328,
      "ĠPri": 2329,
      "Ġhai": 2330,
      "Ġsfi": 2331,
      "tuto": 2332,
      "Ġconsegu": 2333,
      "Ġpresta": 2334,
      "Ġdisc": 2335,
      "Ġpermet": 2336,
      "Ġdimen": 2337,
      "Ġdevono": 2338,
      "Ġvoglia": 2339,
      "vate": 2340,
      "Ġconsul": 2341,
      "id": 2342,
      "Ġutenti": 2343,
      "ts": 2344,
      "centi": 2345,
      "Ġdisa": 2346,
      "Ġmala": 2347,
      "Ġcompet": 2348,
      "Ġ25": 2349,
      "gano": 2350,
      "Tu": 2351,
      "vera": 2352,
      "mmo": 2353,
      "Ġdestina": 2354,
      "ZIONE": 2355,
      "mmi": 2356,
      "Ġcontinu": 2357,
      "Ġcomin": 2358,
      "versi": 2359,
      "Ġnecessi": 2360,
      "anna": 2361,
      "Ġpiccolo": 2362,
      "Ġmas": 2363,
      "Da": 2364,
      "Ġur": 2365,
      "eti": 2366,
      "mbo": 2367,
      "Ġ...": 2368,
      "dino": 2369,
      "des": 2370,
      "Ġsoddis": 2371,
      "ĠConsi": 2372,
      "Ġmaggiore": 2373,
      "Ġlingua": 2374,
      "Ġnello": 2375,
      "Ġfran": 2376,
      "utare": 2377,
      "Ġitaliana": 2378,
      "Ġmare": 2379,
      "Ġgoverno": 2380,
      "ĠFo": 2381,
      "Ġvalori": 2382,
      "Ġgiornata": 2383,
      "lando": 2384,
      "11": 2385,
      "samente": 2386,
      "Ġrischio": 2387,
      "ssociazione": 2388,
      "Ġinseri": 2389,
      "ĠGu": 2390,
      "Ġ:": 2391,
      "Ġclienti": 2392,
      "Ġamministra": 2393,
      "Ġemo": 2394,
      "AR": 2395,
      "ziende": 2396,
      "Ġoffre": 2397,
      "ora": 2398,
      "Ġdunque": 2399,
      "Ġriguarda": 2400,
      "Ġdie": 2401,
      "ĠBar": 2402,
      "Ġriferimento": 2403,
      "DI": 2404,
      "Ġappena": 2405,
      "mico": 2406,
      "Ġtemp": 2407,
      "gom": 2408,
      "ellu": 2409,
      "assi": 2410,
      "Ġmeto": 2411,
      "Ġcentra": 2412,
      "ĠperchÃ¨": 2413,
      "ĠVal": 2414,
      "Ġdigi": 2415,
      "Ġcostru": 2416,
      "Ġlon": 2417,
      "Ġmisura": 2418,
      "duto": 2419,
      "ĠGiu": 2420,
      "ĠCol": 2421,
      "bbra": 2422,
      "gico": 2423,
      "Ġproba": 2424,
      "Ca": 2425,
      "tenzi": 2426,
      "Ġindividu": 2427,
      "ĠTe": 2428,
      "Ġistitu": 2429,
      "ĠDEL": 2430,
      "Ġ'": 2431,
      "rano": 2432,
      "cal": 2433,
      "Ġprofi": 2434,
      "Ġpeso": 2435,
      "Ġstessi": 2436,
      "Ġillu": 2437,
      "bato": 2438,
      "Ġversione": 2439,
      "Ġmale": 2440,
      "Ġuomo": 2441,
      "Ġvisita": 2442,
      "Ġesperienza": 2443,
      "Ġnove": 2444,
      "Ġ50": 2445,
      "Ġpubblica": 2446,
      "ĠCri": 2447,
      "Ġcittadini": 2448,
      "Ġvolon": 2449,
      "Ġcapo": 2450,
      "ĠAnche": 2451,
      "Ġacqua": 2452,
      "Ġmacch": 2453,
      "ficato": 2454,
      "iscono": 2455,
      "ĠTor": 2456,
      "yo": 2457,
      "zzato": 2458,
      "Ġcapire": 2459,
      "ir": 2460,
      "Ġdivi": 2461,
      "Ġaccompa": 2462,
      "Ġgiornali": 2463,
      "Ġ2015": 2464,
      "Ġavven": 2465,
      "CI": 2466,
      "omina": 2467,
      "erti": 2468,
      "tazioni": 2469,
      "Ġrichiesta": 2470,
      "VI": 2471,
      "//": 2472,
      "Ġcarta": 2473,
      "Ġ100": 2474,
      "rlo": 2475,
      "Ġdedi": 2476,
      "Ġposizione": 2477,
      "ĠCos": 2478,
      "Ġazienda": 2479,
      "âĢĵ": 2480,
      "Ġaggiorna": 2481,
      "noltre": 2482,
      "Ġfaccia": 2483,
      "Ġrifle": 2484,
      "sola": 2485,
      "ĠHa": 2486,
      "Ġmorte": 2487,
      "Ġfase": 2488,
      "ĠDu": 2489,
      "ĠStato": 2490,
      "12": 2491,
      "Ġeserci": 2492,
      "Ġcostrui": 2493,
      "Ġtal": 2494,
      "cale": 2495,
      "zzando": 2496,
      "naio": 2497,
      "Ġ[": 2498,
      "Ġmettere": 2499,
      "Ġavrebbe": 2500,
      "dati": 2501,
      "sco": 2502,
      "ettare": 2503,
      "telli": 2504,
      "tego": 2505,
      "Ġcollaborazione": 2506,
      "Ġvanta": 2507,
      "Ġrappresen": 2508,
      "Ġinteressa": 2509,
      "Ġstabili": 2510,
      "vazione": 2511,
      "Ġscena": 2512,
      "Ġaziende": 2513,
      "ĠApp": 2514,
      "Ġriser": 2515,
      "Ġade": 2516,
      "Ġlibera": 2517,
      "Ġfinale": 2518,
      "ĠFranc": 2519,
      "pale": 2520,
      "Ġidenti": 2521,
      "Ġbelle": 2522,
      "Ġbuon": 2523,
      "art": 2524,
      "Ġis": 2525,
      "rere": 2526,
      "Ġmatt": 2527,
      "Ġmaniera": 2528,
      "enso": 2529,
      "Ġanzi": 2530,
      "telle": 2531,
      "Ġocchi": 2532,
      "Ġcook": 2533,
      "Ġesclusi": 2534,
      "Ġ2014": 2535,
      "Ġspor": 2536,
      "Ġstrate": 2537,
      "ang": 2538,
      "Ġabbia": 2539,
      "Ġrispon": 2540,
      "cle": 2541,
      "Ġstampa": 2542,
      "evi": 2543,
      "tualmente": 2544,
      "Ġutilizzare": 2545,
      "son": 2546,
      "rate": 2547,
      "ttp": 2548,
      "Ġitaliani": 2549,
      "Ġrisultato": 2550,
      "Ġappar": 2551,
      "Ġfacile": 2552,
      "Lo": 2553,
      "Ġsede": 2554,
      "Ġcucina": 2555,
      "enica": 2556,
      "prire": 2557,
      "Ġmodello": 2558,
      "Ġragazzi": 2559,
      "dos": 2560,
      "Ġcomporta": 2561,
      "Ġturi": 2562,
      "Ġ21": 2563,
      "ismo": 2564,
      "Ġ|": 2565,
      "Ġimmagini": 2566,
      "Ġquotidi": 2567,
      "OS": 2568,
      "Ġscorso": 2569,
      "Ġsimi": 2570,
      "Ġsettembre": 2571,
      "dano": 2572,
      "amp": 2573,
      "Ġrila": 2574,
      "Ġinclu": 2575,
      "Ġsinda": 2576,
      "Ġcerti": 2577,
      "Ġrile": 2578,
      "Ġdiffi": 2579,
      "data": 2580,
      "isto": 2581,
      "Ġfal": 2582,
      "Ġdovrebbe": 2583,
      "Ġpiccoli": 2584,
      "Ġresi": 2585,
      "ĠDopo": 2586,
      "Ġdifficile": 2587,
      "ĠInter": 2588,
      "Ġprovin": 2589,
      "://": 2590,
      "uale": 2591,
      "unale": 2592,
      "Ġavre": 2593,
      "Ġgiugno": 2594,
      "Ġrive": 2595,
      "Ġatto": 2596,
      "ree": 2597,
      "Ġfondo": 2598,
      "Ġconser": 2599,
      "Ġinternazionale": 2600,
      "Ġmoder": 2601,
      "Ġrica": 2602,
      "Ġsola": 2603,
      "Ġprincipali": 2604,
      "Ġusci": 2605,
      "Ġcosto": 2606,
      "Ġsalute": 2607,
      "Ġalto": 2608,
      "ly": 2609,
      "Ġsegre": 2610,
      "Ġcompre": 2611,
      "Ġprogetti": 2612,
      "durre": 2613,
      "od": 2614,
      "Ġiscri": 2615,
      "dotto": 2616,
      "Ġinsta": 2617,
      "azienda": 2618,
      "Ġsquadra": 2619,
      "ĠnÃ©": 2620,
      "lici": 2621,
      "Ġpotra": 2622,
      "idea": 2623,
      "Ġfanta": 2624,
      "Ġmanifesta": 2625,
      "Ġespre": 2626,
      "utili": 2627,
      "Ġprova": 2628,
      "vendo": 2629,
      "Ġparlare": 2630,
      "ĠThe": 2631,
      "vista": 2632,
      "Ġquad": 2633,
      "Ġries": 2634,
      "Ġliber": 2635,
      "Ġbe": 2636,
      "Ġcomunicazione": 2637,
      "ande": 2638,
      "Ġvole": 2639,
      "cy": 2640,
      "Ġ2018": 2641,
      "Ġeven": 2642,
      "Ġlocali": 2643,
      "fe": 2644,
      "late": 2645,
      "Ġmalatti": 2646,
      "Ġgeni": 2647,
      "Ġsto": 2648,
      "Ġdescri": 2649,
      "ond": 2650,
      "Ġeventi": 2651,
      "Ġaccesso": 2652,
      "Ġpubblici": 2653,
      "onte": 2654,
      "Ġvarie": 2655,
      "Ġpost": 2656,
      "tana": 2657,
      "ĠCen": 2658,
      "uzioni": 2659,
      "Ġguerra": 2660,
      "sca": 2661,
      "ardi": 2662,
      "Ġcrescita": 2663,
      "rente": 2664,
      "Ġriconosci": 2665,
      "ster": 2666,
      "ĠBu": 2667,
      "gioni": 2668,
      "Ġpari": 2669,
      "Ġatta": 2670,
      "Ġfigu": 2671,
      "viamente": 2672,
      "Ġdisponibile": 2673,
      "ggiare": 2674,
      "Ġscor": 2675,
      "Ġfatti": 2676,
      "200": 2677,
      "diale": 2678,
      "Ġprendere": 2679,
      "larmente": 2680,
      "Ġsugg": 2681,
      "Questo": 2682,
      "Ġpossiamo": 2683,
      "Ġtelef": 2684,
      "ticolo": 2685,
      "LO": 2686,
      "Ġritro": 2687,
      "ogle": 2688,
      "Ġvivere": 2689,
      "Ġnotte": 2690,
      "Ġstrumenti": 2691,
      "Ġcine": 2692,
      "Ġtrasforma": 2693,
      "Ġcaratteri": 2694,
      "Ġeffica": 2695,
      "cos": 2696,
      "Ġosser": 2697,
      "Ġvendita": 2698,
      "trimonio": 2699,
      "Ġentro": 2700,
      "Ġpersonali": 2701,
      "Ġmemo": 2702,
      "Ġnaturale": 2703,
      "Ġcoper": 2704,
      "pren": 2705,
      "Ġdiritti": 2706,
      "cebook": 2707,
      "Ġmal": 2708,
      "gari": 2709,
      "anche": 2710,
      "Mi": 2711,
      "attivitÃł": 2712,
      "Ġpot": 2713,
      "Ġcostitu": 2714,
      "Ġbreve": 2715,
      "Ġpass": 2716,
      "ĠmodalitÃł": 2717,
      "Ġmarzo": 2718,
      "Ġcele": 2719,
      "tera": 2720,
      "Ġ2013": 2721,
      "mos": 2722,
      "Ġlavori": 2723,
      "Ġcontenuti": 2724,
      "Ġmeta": 2725,
      "Ġdomanda": 2726,
      "genze": 2727,
      "Re": 2728,
      "viamo": 2729,
      "Ġfacendo": 2730,
      "Ġrapi": 2731,
      "Ġvostra": 2732,
      "ĠGiov": 2733,
      "Ġcolori": 2734,
      "ĠChe": 2735,
      "Ġnego": 2736,
      "Gli": 2737,
      "condo": 2738,
      "Ġregola": 2739,
      "Ġzu": 2740,
      "ĠRu": 2741,
      "Ġfarma": 2742,
      "Ġsiti": 2743,
      "Ġgiovane": 2744,
      "Ġalta": 2745,
      "Ġindica": 2746,
      "Ġdeciso": 2747,
      "Ġterre": 2748,
      "Ġriman": 2749,
      "Ġattenzione": 2750,
      "Ġsoluzione": 2751,
      "Ġimm": 2752,
      "alisi": 2753,
      "ĠAle": 2754,
      "Ġusa": 2755,
      "Ġincontra": 2756,
      "Ġ/": 2757,
      "Ġrega": 2758,
      "Ġdicembre": 2759,
      "Ġcorri": 2760,
      "ĠStati": 2761,
      "lini": 2762,
      "Ġnote": 2763,
      "mici": 2764,
      "Ġraff": 2765,
      "Ġspecia": 2766,
      "ry": 2767,
      "ĠcioÃ¨": 2768,
      "Ġcaratteristiche": 2769,
      "Ġcolore": 2770,
      "Ġlettera": 2771,
      "inizio": 2772,
      "ka": 2773,
      "ĠOr": 2774,
      "gnato": 2775,
      "ultima": 2776,
      "Ġ2012": 2777,
      "ket": 2778,
      "aren": 2779,
      "Ġdiscu": 2780,
      "Ġbio": 2781,
      "Vi": 2782,
      "op": 2783,
      "Ġeffettua": 2784,
      "essere": 2785,
      "NA": 2786,
      "Ġlocale": 2787,
      "inte": 2788,
      "CH": 2789,
      "Ġrelazione": 2790,
      "Ġinvia": 2791,
      "Ġsapere": 2792,
      "Ġobbli": 2793,
      "Ġemer": 2794,
      "Ġconoscere": 2795,
      "Ġtar": 2796,
      "ĠComune": 2797,
      "Ġscegliere": 2798,
      "Ġgiudi": 2799,
      "----": 2800,
      "Ġset": 2801,
      "zion": 2802,
      "uter": 2803,
      "Ġarre": 2804,
      "ĠpotrÃł": 2805,
      "Ġfilo": 2806,
      "ĠSte": 2807,
      "Ġottobre": 2808,
      "Ġscar": 2809,
      "Ġchie": 2810,
      "Ġbella": 2811,
      "Ġpuoi": 2812,
      "Ġscoper": 2813,
      "Ġscritto": 2814,
      "Ġconvin": 2815,
      "Ġequi": 2816,
      "Ġascol": 2817,
      "ĠSta": 2818,
      "ttere": 2819,
      "bbia": 2820,
      "meri": 2821,
      "Ġrisposta": 2822,
      "Ġvaluta": 2823,
      "Ġcollega": 2824,
      "Ġgennaio": 2825,
      "Ġsesso": 2826,
      "stiche": 2827,
      "rai": 2828,
      "Ġdistrib": 2829,
      "ment": 2830,
      "logo": 2831,
      "esperienza": 2832,
      "Ġprov": 2833,
      "Ġovvero": 2834,
      "Ġbasta": 2835,
      "Ġaiuta": 2836,
      "VA": 2837,
      "ĠMan": 2838,
      "Ġreli": 2839,
      "Ġletto": 2840,
      "Ġmiei": 2841,
      "Ġstanno": 2842,
      "ĠQuesta": 2843,
      "Ġportare": 2844,
      "area": 2845,
      "genti": 2846,
      "ĠJo": 2847,
      "chite": 2848,
      "ttosto": 2849,
      "OM": 2850,
      "Ġcatego": 2851,
      "Ġcontempo": 2852,
      "Ġfile": 2853,
      "Ġpensa": 2854,
      "Ġdavanti": 2855,
      "Ġincontri": 2856,
      "Ġfigli": 2857,
      "Ġelementi": 2858,
      "ssime": 2859,
      "Ġoccupa": 2860,
      "up": 2861,
      "Ġtotale": 2862,
      "ET": 2863,
      "Tra": 2864,
      "Pre": 2865,
      "terno": 2866,
      "Ġavanti": 2867,
      "Ġinca": 2868,
      "Ġdisponibili": 2869,
      "Ġmodifica": 2870,
      "lora": 2871,
      "Ġestre": 2872,
      "Ġbelli": 2873,
      "Ġcrisi": 2874,
      "ĠTer": 2875,
      "Ġpotenzi": 2876,
      "date": 2877,
      "Ġvoce": 2878,
      "ĠcomunitÃł": 2879,
      "lin": 2880,
      "Ġamp": 2881,
      "Ġviol": 2882,
      "Ġvede": 2883,
      "Ġevitare": 2884,
      "Ġconn": 2885,
      "mart": 2886,
      "ĠdifficoltÃł": 2887,
      "ĠnecessitÃł": 2888,
      "bbraio": 2889,
      "non": 2890,
      "dersi": 2891,
      "ciare": 2892,
      "ffa": 2893,
      "ĠConsiglio": 2894,
      "Ġinnova": 2895,
      "arci": 2896,
      "dire": 2897,
      "II": 2898,
      "Ġmassimo": 2899,
      "lib": 2900,
      "canza": 2901,
      "Ġcinque": 2902,
      "Ġstudi": 2903,
      "Ġ22": 2904,
      "Ġminis": 2905,
      "Ġveni": 2906,
      "amore": 2907,
      "gie": 2908,
      "Ġraggiungere": 2909,
      "Ġcliente": 2910,
      "Ġnessuno": 2911,
      "Ġpuli": 2912,
      "Ġopere": 2913,
      "alitÃł": 2914,
      "Ġrima": 2915,
      "ĠQuando": 2916,
      "tesi": 2917,
      "Ġrifi": 2918,
      "Ġsani": 2919,
      "Ġmos": 2920,
      "Ġluglio": 2921,
      "ondo": 2922,
      "Ġnovembre": 2923,
      "Ġsicuramente": 2924,
      "Ġasse": 2925,
      "Ġintro": 2926,
      "Ġsale": 2927,
      "Ġtito": 2928,
      "Ġbambino": 2929,
      "Ġnavi": 2930,
      "Ġameri": 2931,
      "Ġcompletamente": 2932,
      "Ġtuoi": 2933,
      "ris": 2934,
      "Ġunico": 2935,
      "Ġgara": 2936,
      "Ġcia": 2937,
      "Ġopport": 2938,
      "Ġcampa": 2939,
      "Ġrecu": 2940,
      "Ġ&": 2941,
      "Ġtante": 2942,
      "Ġpotere": 2943,
      "Ġprime": 2944,
      "Ġsupera": 2945,
      "matica": 2946,
      "Ġprincipale": 2947,
      "ftware": 2948,
      "cana": 2949,
      "arlo": 2950,
      "Ġpasso": 2951,
      "mministra": 2952,
      "ĠsÃ©": 2953,
      "ĠGran": 2954,
      "lay": 2955,
      "Ġpiuttosto": 2956,
      "mone": 2957,
      "ĠChiesa": 2958,
      "Ġcompon": 2959,
      "Ġimmedia": 2960,
      "Ġsper": 2961,
      "Ġvali": 2962,
      "Ġdesign": 2963,
      "Ġsoggetti": 2964,
      "ttivo": 2965,
      "Ġderi": 2966,
      "dri": 2967,
      "Ġtesto": 2968,
      "Ġrep": 2969,
      "ati": 2970,
      "Ġprossimo": 2971,
      "Ġvicino": 2972,
      "Ġoccasione": 2973,
      "onati": 2974,
      "Ġdovre": 2975,
      "ee": 2976,
      "Ġpensare": 2977,
      "tini": 2978,
      "Ġdiventa": 2979,
      "Ġaffa": 2980,
      "Ġconsa": 2981,
      "Ġcellu": 2982,
      "Ġtermini": 2983,
      "colare": 2984,
      "umi": 2985,
      "Ġj": 2986,
      "ĠverrÃł": 2987,
      "Ġprofessioni": 2988,
      "Ġquestione": 2989,
      "Ġniente": 2990,
      "tanze": 2991,
      "Ho": 2992,
      "Ġpassi": 2993,
      "ĠTri": 2994,
      "Ġsociali": 2995,
      "onna": 2996,
      "Ġconosci": 2997,
      "eso": 2998,
      "menta": 2999,
      "bar": 3000,
      "Ġqualcuno": 3001,
      "Ġpiccola": 3002,
      "Ġmotivo": 3003,
      "Ci": 3004,
      "Ġsoltanto": 3005,
      "80": 3006,
      "Ġbru": 3007,
      "udi": 3008,
      "ĠDis": 3009,
      "Ġcolpi": 3010,
      "mba": 3011,
      "Ġeli": 3012,
      "pubbli": 3013,
      "Ġfavore": 3014,
      "Ġaprile": 3015,
      "Ġconoscenza": 3016,
      "Ġir": 3017,
      "Ġesigenze": 3018,
      "15": 3019,
      "Ġpromo": 3020,
      "ct": 3021,
      "trici": 3022,
      "Ġscopo": 3023,
      "Ġmassa": 3024,
      "Ġdemo": 3025,
      "Ġfunzione": 3026,
      "Ġarriva": 3027,
      "ĠMaria": 3028,
      "Ġagg": 3029,
      "Ġimprese": 3030,
      "Po": 3031,
      "camente": 3032,
      "Ġsole": 3033,
      "Ġmateriale": 3034,
      "ĠNapoli": 3035,
      "Ġprevede": 3036,
      "ader": 3037,
      "Ġrendere": 3038,
      "Ġsviluppa": 3039,
      "ĠGia": 3040,
      "Ġsche": 3041,
      "derÃł": 3042,
      "Ġaspetta": 3043,
      "vra": 3044,
      "tuna": 3045,
      "Ġpal": 3046,
      "Sono": 3047,
      "Ġulter": 3048,
      "www": 3049,
      "Ġinterpre": 3050,
      "turi": 3051,
      "Ġriten": 3052,
      "Pa": 3053,
      "Ġmino": 3054,
      "Ġmemb": 3055,
      "Ġrisorse": 3056,
      "Ġimpi": 3057,
      "GI": 3058,
      "Ġcookie": 3059,
      "ccato": 3060,
      "Ġpadre": 3061,
      "ĠmetÃł": 3062,
      "Ġsistemi": 3063,
      "utilizzo": 3064,
      "imma": 3065,
      "Ġperfetta": 3066,
      "Ġcollo": 3067,
      "Ġbisogna": 3068,
      "Ġgente": 3069,
      "ĠPaese": 3070,
      "Ġpiedi": 3071,
      "ĠSpa": 3072,
      "Ġmetri": 3073,
      "Ġmer": 3074,
      "Ġprecedente": 3075,
      "Ġfiglio": 3076,
      "Ġcresc": 3077,
      "Ġbor": 3078,
      "damento": 3079,
      "ĠItali": 3080,
      "contro": 3081,
      "Ġarrivare": 3082,
      "Ġfeli": 3083,
      "orti": 3084,
      "Ġpaesi": 3085,
      "Ġ23": 3086,
      "ĠGer": 3087,
      "Ġristo": 3088,
      "ori": 3089,
      "60": 3090,
      "unica": 3091,
      "tner": 3092,
      "ĠproprietÃł": 3093,
      "gri": 3094,
      "Ġgro": 3095,
      "illa": 3096,
      "Ġspazi": 3097,
      "Ġ40": 3098,
      "segui": 3099,
      "Euro": 3100,
      "Ġgiro": 3101,
      "Ġconti": 3102,
      "Ġnota": 3103,
      "No": 3104,
      "Ġdimenti": 3105,
      "Ġfondamentale": 3106,
      "Ġfemm": 3107,
      "Ġmateriali": 3108,
      "unci": 3109,
      "isti": 3110,
      "Ġmente": 3111,
      "ficio": 3112,
      "Ġstorico": 3113,
      "ttiva": 3114,
      "Ġtess": 3115,
      "estra": 3116,
      "Ġglo": 3117,
      "lie": 3118,
      "AL": 3119,
      "ettato": 3120,
      "Ġpericolo": 3121,
      "Ġveloce": 3122,
      "ĠGoogle": 3123,
      "Ġinfer": 3124,
      "Ġresto": 3125,
      "tis": 3126,
      "Ġschi": 3127,
      "ĠVia": 3128,
      "Ġdiventare": 3129,
      "Ġbasso": 3130,
      "Ġperdere": 3131,
      "isi": 3132,
      "Ġcoloro": 3133,
      "Ġmadre": 3134,
      "Ġpreferi": 3135,
      "Ġgravi": 3136,
      "Ġmette": 3137,
      "Ġgiusto": 3138,
      "Ġsecolo": 3139,
      "Ġingre": 3140,
      "Ġnonostante": 3141,
      "duta": 3142,
      "__": 3143,
      "Ġfur": 3144,
      "Ġgua": 3145,
      "llare": 3146,
      "Ġaspetti": 3147,
      "mbe": 3148,
      "Ġparola": 3149,
      "Ġrecente": 3150,
      "razioni": 3151,
      "ranea": 3152,
      "ĠGen": 3153,
      "Ġgiusti": 3154,
      "enne": 3155,
      "Ġbat": 3156,
      "erazione": 3157,
      "Ġsocial": 3158,
      "lazioni": 3159,
      "uire": 3160,
      "Ġstrumento": 3161,
      "ccare": 3162,
      "Ġuso": 3163,
      "Ġsuperiore": 3164,
      "ĠPresidente": 3165,
      "rizzo": 3166,
      "cine": 3167,
      "ĠFrancesco": 3168,
      "Ġconsenti": 3169,
      "Ġcic": 3170,
      "Ġpagamento": 3171,
      "Ġrealizzazione": 3172,
      "Ġreali": 3173,
      "Ġconfronti": 3174,
      "ĠInoltre": 3175,
      "Ġscher": 3176,
      "Ġdip": 3177,
      "Ġspiega": 3178,
      "org": 3179,
      "volo": 3180,
      "Ġtecniche": 3181,
      "Ġcontatto": 3182,
      "Ġ2011": 3183,
      "Ġcandi": 3184,
      "Ġconsigli": 3185,
      "AS": 3186,
      "Ġtali": 3187,
      "Ġarticolo": 3188,
      "tella": 3189,
      "Ġincontro": 3190,
      "ĠVene": 3191,
      "Ġportato": 3192,
      "Ġbri": 3193,
      "Ġfebbraio": 3194,
      "Ġstudenti": 3195,
      "anzi": 3196,
      "Ġge": 3197,
      "Ġinci": 3198,
      "Ġbal": 3199,
      "Ġroman": 3200,
      "ĠresponsabilitÃł": 3201,
      "dale": 3202,
      "tivamente": 3203,
      "eranno": 3204,
      "stici": 3205,
      "Ġblog": 3206,
      "Ġsba": 3207,
      "Ġdentro": 3208,
      "Ġsoluzioni": 3209,
      "Ġluoghi": 3210,
      "Ġspeciali": 3211,
      "issi": 3212,
      "Ġgenitori": 3213,
      "Ġreale": 3214,
      "Ġesegui": 3215,
      "Ġusare": 3216,
      "ensa": 3217,
      "Ġtur": 3218,
      "Ġtea": 3219,
      "ersi": 3220,
      "Ġstand": 3221,
      "onare": 3222,
      "gliato": 3223,
      "fficiente": 3224,
      "Ġrealizzare": 3225,
      "ĠnovitÃł": 3226,
      "Ġmovimento": 3227,
      "Ġmesso": 3228,
      "ĠPoli": 3229,
      "Ġacce": 3230,
      "Ġtecnica": 3231,
      "Ġprocedu": 3232,
      "Ġragione": 3233,
      "land": 3234,
      "Ġspia": 3235,
      "Ġscienti": 3236,
      "ĠJa": 3237,
      "Ġzucch": 3238,
      "Ġutile": 3239,
      "vamo": 3240,
      "Ġbianco": 3241,
      "Com": 3242,
      "zzano": 3243,
      "Ġrende": 3244,
      "Ġmetodo": 3245,
      "articolo": 3246,
      "Ġfatta": 3247,
      "poca": 3248,
      "ght": 3249,
      "Ġcomplessi": 3250,
      "Ġtenta": 3251,
      "Ġsemplicemente": 3252,
      "Ġforme": 3253,
      "metri": 3254,
      "Ġlibri": 3255,
      "mate": 3256,
      "ĠLA": 3257,
      "Ġsupporto": 3258,
      "Ġlunga": 3259,
      "sivo": 3260,
      "Ġesperi": 3261,
      "cole": 3262,
      "Ġvanno": 3263,
      "Ġingle": 3264,
      "Ġoggetti": 3265,
      "Ġalb": 3266,
      "Ġsottoline": 3267,
      "ĠCON": 3268,
      "Ġconcentra": 3269,
      "Ġgri": 3270,
      "Ġconsente": 3271,
      "Ġquei": 3272,
      "Ġmacchina": 3273,
      "Ġbro": 3274,
      "ins": 3275,
      "Ġfamiglie": 3276,
      "Ġclasse": 3277,
      "ciato": 3278,
      "raggio": 3279,
      "lizzazione": 3280,
      "ld": 3281,
      "Ġsoftware": 3282,
      "Ġfrat": 3283,
      "Ġvaria": 3284,
      "Ġricev": 3285,
      "Dopo": 3286,
      "Ġdedicato": 3287,
      "roni": 3288,
      "Ġmodelli": 3289,
      "Ġdietro": 3290,
      "Ġfres": 3291,
      "ĠlibertÃł": 3292,
      "ĠFacebook": 3293,
      "Ġdistin": 3294,
      "Ġmaggiori": 3295,
      "Ġspecie": 3296,
      "ranza": 3297,
      "ĠEuropa": 3298,
      "rori": 3299,
      "Ġtecnologia": 3300,
      "Ġdifferenza": 3301,
      "essore": 3302,
      "MEN": 3303,
      "Ġconsape": 3304,
      "Ġamore": 3305,
      "ĠGre": 3306,
      "ttima": 3307,
      "Ġaddi": 3308,
      "Ġpiatta": 3309,
      "ker": 3310,
      "ĠPER": 3311,
      "ambiente": 3312,
      ".,": 3313,
      "Ġalterna": 3314,
      "Ġvir": 3315,
      "ordine": 3316,
      "Ġsess": 3317,
      "Ġseguire": 3318,
      "Ġintra": 3319,
      "Ġavete": 3320,
      "Ġpagine": 3321,
      "Ġufficiale": 3322,
      "redi": 3323,
      "Ġmuo": 3324,
      "stro": 3325,
      "lazzo": 3326,
      "scip": 3327,
      "Ġpiacere": 3328,
      "bora": 3329,
      "Ġlavorare": 3330,
      "Ġprovve": 3331,
      "NI": 3332,
      "Ġmulti": 3333,
      "Ġdovuto": 3334,
      "zzata": 3335,
      "Ġstraordina": 3336,
      "Ġproveni": 3337,
      "Ġmus": 3338,
      "Ġripro": 3339,
      "Ġmigliorare": 3340,
      "ggere": 3341,
      "DA": 3342,
      "Ġrisol": 3343,
      "Ġsinistra": 3344,
      "Ġindustri": 3345,
      "enda": 3346,
      "ĠPaolo": 3347,
      "CE": 3348,
      "Ġpartecipazione": 3349,
      "ressi": 3350,
      "Ġsali": 3351,
      "Ġinterventi": 3352,
      "Ġom": 3353,
      "Ġtrovato": 3354,
      "Ġtrasc": 3355,
      "Ġripor": 3356,
      "Ġeffettu": 3357,
      "Ġanimali": 3358,
      "renti": 3359,
      "inf": 3360,
      "Ġazioni": 3361,
      "Ġcostante": 3362,
      "sando": 3363,
      "work": 3364,
      "verna": 3365,
      "Ġapprofon": 3366,
      "enom": 3367,
      "Ġmecc": 3368,
      "Ġriti": 3369,
      "anca": 3370,
      "ardo": 3371,
      "cini": 3372,
      "pporti": 3373,
      "Ġpoe": 3374,
      "Ġvorre": 3375,
      "Ġintorno": 3376,
      "Ġsport": 3377,
      "mentari": 3378,
      "Ġmu": 3379,
      "ania": 3380,
      "Ġconcre": 3381,
      "name": 3382,
      "18": 3383,
      "shi": 3384,
      "rci": 3385,
      "Ġcontratto": 3386,
      "Ġpotrebbero": 3387,
      "Ġfam": 3388,
      "Ġmangia": 3389,
      "Ġmagari": 3390,
      "Ġavevano": 3391,
      "Ġcostitui": 3392,
      "Ġprezzi": 3393,
      "Ġpiazza": 3394,
      "Â»,": 3395,
      "scono": 3396,
      "Ġcomba": 3397,
      "done": 3398,
      "lub": 3399,
      "endere": 3400,
      "Ġepi": 3401,
      "tamento": 3402,
      "Ġpartita": 3403,
      "mila": 3404,
      "NO": 3405,
      "Ġtute": 3406,
      "Ġtempera": 3407,
      "Ġpartner": 3408,
      "estival": 3409,
      "Ġpure": 3410,
      "nno": 3411,
      "Ġmicro": 3412,
      "berto": 3413,
      "Ġsfru": 3414,
      "Ġpassione": 3415,
      "Ġrispar": 3416,
      "bina": 3417,
      "Ġfed": 3418,
      "rendi": 3419,
      "wn": 3420,
      "Ġdallo": 3421,
      "ĠVo": 3422,
      "ĠMinis": 3423,
      "troppo": 3424,
      "Ġprovo": 3425,
      "Ġidee": 3426,
      "ĠlÃ¬": 3427,
      "Ġciasc": 3428,
      "Ġieri": 3429,
      "Ġmattina": 3430,
      "Ġsezione": 3431,
      "astanza": 3432,
      "dizione": 3433,
      "aria": 3434,
      "Ġresid": 3435,
      "ĠquantitÃł": 3436,
      "Ġaree": 3437,
      "Ġeconomico": 3438,
      "tone": 3439,
      "ms": 3440,
      "Ġfarlo": 3441,
      "ĠâĤ¬": 3442,
      "Ġpresto": 3443,
      "mobili": 3444,
      "Ġpersonaggi": 3445,
      "alto": 3446,
      "ddo": 3447,
      "Ġcamm": 3448,
      "duce": 3449,
      "Ġparticolarmente": 3450,
      "Ġsmart": 3451,
      ");": 3452,
      "ĠveritÃł": 3453,
      "ĠGiovanni": 3454,
      "Ġalcun": 3455,
      "ete": 3456,
      "Ġcond": 3457,
      "enziale": 3458,
      "venire": 3459,
      "Ġtrasferi": 3460,
      "Ġrealizzato": 3461,
      "Ġdanno": 3462,
      "Ġculturale": 3463,
      "Ġpiena": 3464,
      "grafia": 3465,
      "Ġmera": 3466,
      "ĠdovrÃł": 3467,
      "Ġpieno": 3468,
      "SO": 3469,
      "gati": 3470,
      "ambito": 3471,
      "venzione": 3472,
      "Ġpom": 3473,
      "Ġ28": 3474,
      "Ġgiochi": 3475,
      "ĠServi": 3476,
      "Ġparticolari": 3477,
      "bio": 3478,
      "lino": 3479,
      "Ġtradizione": 3480,
      "Ġconsiglio": 3481,
      "ĠDire": 3482,
      "Ġspeciale": 3483,
      "phone": 3484,
      "Ġcomo": 3485,
      "Ġterzo": 3486,
      "Ġgaran": 3487,
      "gata": 3488,
      "Ġdomenica": 3489,
      "Ġpassare": 3490,
      "Ġtera": 3491,
      "Ġlato": 3492,
      "Ġsoddisfa": 3493,
      "Ġpotete": 3494,
      "Ġ27": 3495,
      "Ġabbastanza": 3496,
      "Ġdimensioni": 3497,
      "miche": 3498,
      "into": 3499,
      "Ġposti": 3500,
      "ĠEx": 3501,
      "ĠPia": 3502,
      "Ġpreo": 3503,
      "Ġscom": 3504,
      "detto": 3505,
      "ttoria": 3506,
      "Ġesiste": 3507,
      "Ġmondiale": 3508,
      "ĠetÃł": 3509,
      "Ġsperi": 3510,
      "Ġcontenuto": 3511,
      "ĠCan": 3512,
      "Ġfenom": 3513,
      "ĠJu": 3514,
      "ĠGes": 3515,
      "Ġordina": 3516,
      "Ġinteresse": 3517,
      "cilia": 3518,
      "obiettivo": 3519,
      "sero": 3520,
      "ya": 3521,
      "Ġpotranno": 3522,
      "uito": 3523,
      "Ġprofessionale": 3524,
      "Ġchiaro": 3525,
      "ĠUniti": 3526,
      "ĠIo": 3527,
      "Ġama": 3528,
      "usin": 3529,
      "Ġpaura": 3530,
      "Ġorgani": 3531,
      "Ġ2010": 3532,
      "gante": 3533,
      "Ġcercare": 3534,
      "riamo": 3535,
      "ample": 3536,
      "Ġispi": 3537,
      "Ġconce": 3538,
      "minare": 3539,
      "Ġwww": 3540,
      "uma": 3541,
      "ĠRegione": 3542,
      "ting": 3543,
      "difica": 3544,
      "Ġtecnico": 3545,
      "Ġedizione": 3546,
      "Ġscoprire": 3547,
      "Ġpreno": 3548,
      "din": 3549,
      "ĠGior": 3550,
      "Ġcentrale": 3551,
      "Ġnumerosi": 3552,
      "Ġsom": 3553,
      "ĠCla": 3554,
      "14": 3555,
      "Ġecco": 3556,
      "Ġelettr": 3557,
      "Ġfuoco": 3558,
      "MI": 3559,
      "gimento": 3560,
      "Ġmedico": 3561,
      "Ġinse": 3562,
      "lante": 3563,
      "Ġdiv": 3564,
      "clu": 3565,
      "Ġregionale": 3566,
      "ĠBe": 3567,
      "Ġveramente": 3568,
      "Ġprobabilmente": 3569,
      "Ġovviamente": 3570,
      "biettivi": 3571,
      "Ġchiu": 3572,
      "isco": 3573,
      "cali": 3574,
      "Ġelettri": 3575,
      "Ġseleziona": 3576,
      "ĠPe": 3577,
      "Ġprotagonista": 3578,
      "Ġsho": 3579,
      "ĠLui": 3580,
      "Ġpartecip": 3581,
      "lizzato": 3582,
      "Ġdolore": 3583,
      "example": 3584,
      "Ġgruppi": 3585,
      "ĠCre": 3586,
      "usione": 3587,
      "Ġlivelli": 3588,
      "Ġproposta": 3589,
      "stname": 3590,
      "posito": 3591,
      "pubblica": 3592,
      "Ġ26": 3593,
      "Ġpreso": 3594,
      "Ġet": 3595,
      "volta": 3596,
      "Ġfortuna": 3597,
      "Ġfri": 3598,
      "Ġimpegna": 3599,
      "Ġsicuro": 3600,
      "Ġrie": 3601,
      "Quando": 3602,
      "stente": 3603,
      "rone": 3604,
      "Ġgarantire": 3605,
      "dienti": 3606,
      "Ġlegno": 3607,
      "Ġaccompagna": 3608,
      "Ġemail": 3609,
      "Ġpresti": 3610,
      "ttato": 3611,
      "ĠAnton": 3612,
      "Ġpolitiche": 3613,
      "Ġprotezione": 3614,
      "Ġmanu": 3615,
      "Ġ198": 3616,
      "ĠNew": 3617,
      "Ġmemoria": 3618,
      "Ġagosto": 3619,
      "Ġbel": 3620,
      "usiness": 3621,
      "unti": 3622,
      "Ġconsegna": 3623,
      "Ġabband": 3624,
      "ĠTorino": 3625,
      "ĠEcco": 3626,
      "ĠWin": 3627,
      "pol": 3628,
      "Ġprovincia": 3629,
      "Ġcapelli": 3630,
      "useo": 3631,
      "stono": 3632,
      "monia": 3633,
      "ĠPoi": 3634,
      "Ġcari": 3635,
      "lamento": 3636,
      "estre": 3637,
      "Ġdurata": 3638,
      "13": 3639,
      "Ġumani": 3640,
      "Ġcampagna": 3641,
      "Ġscelto": 3642,
      "ĠsÃ¬": 3643,
      "ko": 3644,
      "Europa": 3645,
      "Ġespri": 3646,
      "ĠNella": 3647,
      "Ġ+": 3648,
      "ĠnonchÃ©": 3649,
      "inare": 3650,
      "Ġtenere": 3651,
      "Ġimpie": 3652,
      "TU": 3653,
      "mamente": 3654,
      "Ġstudia": 3655,
      "mor": 3656,
      "Ġsettimane": 3657,
      "ĠEurope": 3658,
      "Ġlettura": 3659,
      "Ġbilan": 3660,
      "quisi": 3661,
      "Ġlar": 3662,
      "Ġdistanza": 3663,
      "Ġintera": 3664,
      "erdÃ¬": 3665,
      "gnia": 3666,
      "ĠStu": 3667,
      "Ġaffrontare": 3668,
      "Ġinda": 3669,
      "Ġpiani": 3670,
      "siva": 3671,
      "cella": 3672,
      "Ġinternet": 3673,
      "Ġdomande": 3674,
      "Ġcomputer": 3675,
      "und": 3676,
      "rla": 3677,
      "Ġaperto": 3678,
      "Ġoriginale": 3679,
      "âĢ¢": 3680,
      "guardo": 3681,
      "ducia": 3682,
      "Ġpiccole": 3683,
      "ons": 3684,
      "Ġsangue": 3685,
      "Ġtuttavia": 3686,
      "Ġdestra": 3687,
      "Ġraccolta": 3688,
      "16": 3689,
      "immagine": 3690,
      "Ġdiverso": 3691,
      "Ġmassima": 3692,
      "Ġarticoli": 3693,
      "Ġspese": 3694,
      "Ġprevisto": 3695,
      "ung": 3696,
      "Ġnecessaria": 3697,
      "Ġpubblicato": 3698,
      "17": 3699,
      "Ġmerito": 3700,
      "Ġassa": 3701,
      "Ġmomenti": 3702,
      "Ġucci": 3703,
      "utente": 3704,
      "asp": 3705,
      "inda": 3706,
      "Ġantici": 3707,
      "Ġaccor": 3708,
      "Ġperdita": 3709,
      "Ġnero": 3710,
      "Ġsepa": 3711,
      "Ġpan": 3712,
      "onico": 3713,
      "Ġkm": 3714,
      "Ġnaturali": 3715,
      "ler": 3716,
      "mettere": 3717,
      "Ġsuperfici": 3718,
      "veri": 3719,
      "Ġleader": 3720,
      "Ġnega": 3721,
      "Ġsugli": 3722,
      "EG": 3723,
      "vale": 3724,
      "Ġdra": 3725,
      "ualizza": 3726,
      "Ġvicen": 3727,
      "Ġadegua": 3728,
      "Ġinfine": 3729,
      "Ġstrutture": 3730,
      "40": 3731,
      "zzati": 3732,
      "ssioni": 3733,
      "ĠAL": 3734,
      "gnore": 3735,
      "rina": 3736,
      "Ġverde": 3737,
      "fano": 3738,
      "liare": 3739,
      "Ġriesce": 3740,
      "Ġhttp": 3741,
      "ple": 3742,
      "Questa": 3743,
      "stere": 3744,
      "Ġdiscip": 3745,
      "Ġgusto": 3746,
      "Ġmodu": 3747,
      "mazione": 3748,
      "IL": 3749,
      "Ġadesso": 3750,
      "Ġfol": 3751,
      "ĠMarco": 3752,
      "uova": 3753,
      "renze": 3754,
      "resso": 3755,
      "Ġresponsabile": 3756,
      "keting": 3757,
      "tinua": 3758,
      "Ġlink": 3759,
      "ZA": 3760,
      "Ġsala": 3761,
      "Ġyo": 3762,
      "Ġtren": 3763,
      "Ġutilizzato": 3764,
      "Ġx": 3765,
      "Ġtru": 3766,
      "Ġipo": 3767,
      "pore": 3768,
      "PA": 3769,
      "rand": 3770,
      "cani": 3771,
      "come": 3772,
      "evento": 3773,
      "Ġvino": 3774,
      "mmeno": 3775,
      "Ġforn": 3776,
      "Ġcodice": 3777,
      "Ġappunta": 3778,
      "Ġnar": 3779,
      "Ġprefer": 3780,
      "Ġeste": 3781,
      "Ġdesider": 3782,
      "Ġregole": 3783,
      "Ġenergia": 3784,
      "Ġcase": 3785,
      "Ġconfor": 3786,
      "pero": 3787,
      "iki": 3788,
      "Ġappare": 3789,
      "spetti": 3790,
      "Ġritorno": 3791,
      "toriale": 3792,
      "Ġocc": 3793,
      "ĠAndre": 3794,
      "ĠCentro": 3795,
      "Ġseguenti": 3796,
      "presa": 3797,
      "impor": 3798,
      "ĠvelocitÃł": 3799,
      "ĠGesÃ¹": 3800,
      "Ti": 3801,
      "mministrazione": 3802,
      "Ġnasce": 3803,
      "Ġpolitico": 3804,
      "Ġlavoratori": 3805,
      "mitÃł": 3806,
      "rittura": 3807,
      "Ġeventuali": 3808,
      "Ġcalcio": 3809,
      "erico": 3810,
      "Ġoggetto": 3811,
      "Ġposso": 3812,
      "Ġgre": 3813,
      "ssand": 3814,
      "Ġstimo": 3815,
      "Ġfacilmente": 3816,
      "bal": 3817,
      "wa": 3818,
      "Ġdedicata": 3819,
      "ĠSc": 3820,
      "fare": 3821,
      "Ġassicu": 3822,
      "Ġinglese": 3823,
      "uovere": 3824,
      "Ġessi": 3825,
      "ppare": 3826,
      "Ġvive": 3827,
      "Ġ2019": 3828,
      "Ġcristi": 3829,
      "etra": 3830,
      "Ġcas": 3831,
      "Ġestra": 3832,
      "Ġbanca": 3833,
      "Ġlibero": 3834,
      "mble": 3835,
      "Ġideale": 3836,
      "Ġdirezione": 3837,
      "Ġrico": 3838,
      "Ġsfor": 3839,
      "Ġpensiero": 3840,
      "ĠMedi": 3841,
      "Ġinflu": 3842,
      "Ġbellezza": 3843,
      "ganizzazione": 3844,
      "Ġmeravi": 3845,
      "bbio": 3846,
      "dite": 3847,
      "ĠRis": 3848,
      "Ġannuncia": 3849,
      "fra": 3850,
      "Ġsud": 3851,
      "Ġconqu": 3852,
      "Ġprosta": 3853,
      "MO": 3854,
      "Ġtest": 3855,
      "Ġvisione": 3856,
      "Ġefficace": 3857,
      "iste": 3858,
      "end": 3859,
      "Or": 3860,
      "Ġdise": 3861,
      "Ġtrovano": 3862,
      "Ġdistru": 3863,
      "ĠRos": 3864,
      "ĠPerchÃ©": 3865,
      "Ġdisco": 3866,
      "creto": 3867,
      "Ġdiretta": 3868,
      "Ġfemmini": 3869,
      "Ġsoste": 3870,
      "Ġscuole": 3871,
      "Ġtelevi": 3872,
      "Ġcambiare": 3873,
      "Ġinterno": 3874,
      "Ġcostruzione": 3875,
      "Ġacquistare": 3876,
      "Anche": 3877,
      "Ġsemplici": 3878,
      "verti": 3879,
      "Ġcorsi": 3880,
      "estro": 3881,
      "Ġdettagli": 3882,
      "Ġstare": 3883,
      "Ġassolutamente": 3884,
      "arri": 3885,
      "Ġserve": 3886,
      "ĠFin": 3887,
      "Ġcorrispon": 3888,
      "Ġ60": 3889,
      "Ġedu": 3890,
      "Ġadatta": 3891,
      "ĠMol": 3892,
      "ky": 3893,
      "Ġinti": 3894,
      "etwork": 3895,
      "Chi": 3896,
      "Ġsolito": 3897,
      "Ġfornire": 3898,
      "conomia": 3899,
      "ĠPal": 3900,
      "Ġvie": 3901,
      "Ġcivile": 3902,
      "Ġessa": 3903,
      "enna": 3904,
      "Ġinstalla": 3905,
      "Gi": 3906,
      "sano": 3907,
      "Ġmalattia": 3908,
      "minazione": 3909,
      "Ġpassaggio": 3910,
      "Ġsosteni": 3911,
      "Ġvet": 3912,
      "ĠavrÃł": 3913,
      "Ġcarico": 3914,
      "Ġrisulta": 3915,
      "dows": 3916,
      "Ġordine": 3917,
      "Ġ29": 3918,
      "Ġtranqu": 3919,
      "ĠNazionale": 3920,
      "Ġinn": 3921,
      "Ġrapporti": 3922,
      "rti": 3923,
      "urro": 3924,
      "Ġcompleta": 3925,
      "Ġverifica": 3926,
      "Ġsoff": 3927,
      "genzia": 3928,
      "anco": 3929,
      "Ġmessaggio": 3930,
      "gin": 3931,
      "Ġ197": 3932,
      "Ġtan": 3933,
      "Ġvoluto": 3934,
      "ciamo": 3935,
      "occasione": 3936,
      "Ġconso": 3937,
      "Ġbol": 3938,
      "Ġpoche": 3939,
      "Ġfigura": 3940,
      "glior": 3941,
      "Ġenerge": 3942,
      "Ġdanni": 3943,
      "Ġacquisi": 3944,
      "Ġforze": 3945,
      "Ġsoldi": 3946,
      "ĠMich": 3947,
      ".âĢĿ": 3948,
      "ĠAu": 3949,
      "posizione": 3950,
      "24": 3951,
      "Ġ2009": 3952,
      "Ġfunzioni": 3953,
      "riera": 3954,
      "terni": 3955,
      "Ġnemmeno": 3956,
      "ĠCal": 3957,
      "ĠVa": 3958,
      "boli": 3959,
      "Ġbasa": 3960,
      "Ġth": 3961,
      "Ġpazienti": 3962,
      "ssia": 3963,
      "Ġaddirittura": 3964,
      "Ġentrare": 3965,
      "Pi": 3966,
      "cla": 3967,
      "ziale": 3968,
      "arto": 3969,
      "Ġnessun": 3970,
      "dotta": 3971,
      "ĠTea": 3972,
      "ĊĊ": 3973,
      "Ġappassi": 3974,
      "Ġobiettivi": 3975,
      "Ġsabato": 3976,
      "Ġofferte": 3977,
      "Ġdiverti": 3978,
      "Ġdina": 3979,
      "ĠpoichÃ©": 3980,
      "mania": 3981,
      "Ġsve": 3982,
      "licazione": 3983,
      "tria": 3984,
      "Ġmezzi": 3985,
      "ĠCasa": 3986,
      "Ġpad": 3987,
      "Ġmantenere": 3988,
      "ttavia": 3989,
      "by": 3990,
      "Ġospiti": 3991,
      "Ġpasse": 3992,
      "mando": 3993,
      "ultura": 3994,
      "Ġmoni": 3995,
      "tivitÃł": 3996,
      "Ġcata": 3997,
      "onia": 3998,
      "Ġgiar": 3999,
      "25": 4000,
      "Ġmigliora": 4001,
      "Ġab": 4002,
      "Ġinteressante": 4003,
      "Ġmie": 4004,
      "Ġecce": 4005,
      "Ġpropone": 4006,
      "ico": 4007,
      "Ġapparten": 4008,
      "Ġlasci": 4009,
      "Ġapprezza": 4010,
      "Ġpotuto": 4011,
      "Ġpresentazione": 4012,
      "Ġcibo": 4013,
      "ettazione": 4014,
      "Ġscrivere": 4015,
      "Ġvesti": 4016,
      "Ad": 4017,
      "Ġauton": 4018,
      "Ġoffrire": 4019,
      "Ġteam": 4020,
      "Ġavanza": 4021,
      "Ġfranc": 4022,
      "ĠTh": 4023,
      "tus": 4024,
      "vola": 4025,
      "Ġforti": 4026,
      "Ġfinalmente": 4027,
      "ĠMonte": 4028,
      "Ġeconomica": 4029,
      "Ġvuoi": 4030,
      "Ġcompeti": 4031,
      "Ġeffettuare": 4032,
      "Ġvogli": 4033,
      "Ġfesta": 4034,
      "Ġdolce": 4035,
      "TER": 4036,
      "):": 4037,
      "Ġgiusta": 4038,
      "Ġdieci": 4039,
      "dra": 4040,
      "messo": 4041,
      "Ġrimane": 4042,
      "Ġprende": 4043,
      "mini": 4044,
      "Ġzone": 4045,
      "logico": 4046,
      "Ġsmartphone": 4047,
      "Ġevento": 4048,
      "Ġeuropea": 4049,
      "Ġlabora": 4050,
      "danza": 4051,
      "chiamo": 4052,
      "Ġscola": 4053,
      "Ġdigitale": 4054,
      "Ġchiave": 4055,
      "Ġregione": 4056,
      "Ġtue": 4057,
      "Ġconsapevole": 4058,
      "Ġmotivi": 4059,
      "Ġpale": 4060,
      "useppe": 4061,
      "Ġvostri": 4062,
      "Ġinsegna": 4063,
      "Ġsostegno": 4064,
      "Ġassicura": 4065,
      "Ġesso": 4066,
      "vali": 4067,
      "Ġconfi": 4068,
      "Ġstrani": 4069,
      "tine": 4070,
      "Ġdesidera": 4071,
      "dazione": 4072,
      "BI": 4073,
      "dy": 4074,
      "ĠCristo": 4075,
      "Ġchiede": 4076,
      "Ġrischi": 4077,
      "Ġteo": 4078,
      "aper": 4079,
      "Ġgiocare": 4080,
      "Ġcapitale": 4081,
      "Ġumano": 4082,
      "Ġfiducia": 4083,
      "ĠOra": 4084,
      "erale": 4085,
      "Ġpopolo": 4086,
      "ĠRepubblica": 4087,
      "Ġdemocra": 4088,
      "lice": 4089,
      "pposi": 4090,
      "Ġnasc": 4091,
      "Ġreci": 4092,
      "damente": 4093,
      "ue": 4094,
      "Fa": 4095,
      "Ġfan": 4096,
      "Ġconsiglia": 4097,
      "Ġpace": 4098,
      "ĠIs": 4099,
      "Ġambiente": 4100,
      "get": 4101,
      "Ġrosso": 4102,
      "Ġtornare": 4103,
      "Ġeffetto": 4104,
      "mentato": 4105,
      "Ġcoppia": 4106,
      "Ġquell": 4107,
      "oro": 4108,
      "matico": 4109,
      "operazione": 4110,
      "Ġabbi": 4111,
      "Ġcategoria": 4112,
      "DO": 4113,
      "tÃ²": 4114,
      "eto": 4115,
      "fficio": 4116,
      "Ġcondizione": 4117,
      "Ġcm": 4118,
      "tic": 4119,
      "vando": 4120,
      "ĠCro": 4121,
      "Ġrichieste": 4122,
      "Ġsindaco": 4123,
      "Ġindipen": 4124,
      "App": 4125,
      "Ġcoordina": 4126,
      "Ġdirettore": 4127,
      "anora": 4128,
      "tuzione": 4129,
      "mme": 4130,
      "Ġesperienze": 4131,
      "ĠFer": 4132,
      "stare": 4133,
      "Ġmiliardi": 4134,
      "Ġglob": 4135,
      "Ġguada": 4136,
      "ciÃ²": 4137,
      "Ġsensa": 4138,
      "ud": 4139,
      "Ġpopolazione": 4140,
      "ĠImp": 4141,
      "Ġcontesto": 4142,
      "Ġcolla": 4143,
      "autore": 4144,
      "ĠVen": 4145,
      "ĠTre": 4146,
      "golo": 4147,
      "Ġcarattere": 4148,
      "Ġcur": 4149,
      "Ġargom": 4150,
      "isola": 4151,
      "Ġ31": 4152,
      "Ġpartecipare": 4153,
      "iss": 4154,
      "Ġpomeri": 4155,
      "ĠCast": 4156,
      "UniversitÃł": 4157,
      "ologna": 4158,
      "Ġmonta": 4159,
      "Ġzucchero": 4160,
      "Ġpresentato": 4161,
      "ĠIL": 4162,
      "Ġintervento": 4163,
      "rali": 4164,
      "ĠPrima": 4165,
      "ĠvolontÃł": 4166,
      "Ġperce": 4167,
      "Ġracconta": 4168,
      "Ġnotizia": 4169,
      "eff": 4170,
      "hia": 4171,
      "**": 4172,
      "ĠSanta": 4173,
      "Ġmina": 4174,
      "ction": 4175,
      "Ġesperti": 4176,
      "ĠEd": 4177,
      "ĠDon": 4178,
      "Ġdobbiamo": 4179,
      "Ġtestimoni": 4180,
      "ĠFrancia": 4181,
      "Ġragazza": 4182,
      "fera": 4183,
      "Ġutilizzo": 4184,
      "Ġsentire": 4185,
      "tudine": 4186,
      "Ġdiretto": 4187,
      "Ġprestazioni": 4188,
      "scio": 4189,
      "Ġliqui": 4190,
      "Ġstandard": 4191,
      "ĠOggi": 4192,
      "Ġcarne": 4193,
      "Ġspettacolo": 4194,
      "ĠDal": 4195,
      "ĠFed": 4196,
      "Ġbello": 4197,
      "ĠCu": 4198,
      "ĠdÃł": 4199,
      "ĠII": 4200,
      "Co": 4201,
      "Ġsovra": 4202,
      "Gra": 4203,
      "Ġproposte": 4204,
      "Ġnoto": 4205,
      "rendo": 4206,
      "Ġeletto": 4207,
      "Ġvei": 4208,
      "rovvi": 4209,
      "unico": 4210,
      "Ġcomposto": 4211,
      "Ġavvia": 4212,
      "rore": 4213,
      "ĠYo": 4214,
      "Ġpeggio": 4215,
      "voluzione": 4216,
      "gistra": 4217,
      "Ġstesse": 4218,
      "ĠCA": 4219,
      "rne": 4220,
      "ĠBor": 4221,
      "Ġricetta": 4222,
      "Ġgratuito": 4223,
      "Ġiniziato": 4224,
      "Ġcredo": 4225,
      "Ġfede": 4226,
      "cento": 4227,
      "Ġpartito": 4228,
      "Ġdecisione": 4229,
      "ĠBra": 4230,
      "Ġvalutazione": 4231,
      "liari": 4232,
      "Ġfeste": 4233,
      "Ġcanz": 4234,
      "Ġvisualizza": 4235,
      "ccup": 4236,
      "Ġ2008": 4237,
      "Ġnumer": 4238,
      "eremo": 4239,
      "Ġserata": 4240,
      "Ġsimile": 4241,
      "inta": 4242,
      "Ġlatte": 4243,
      "fferta": 4244,
      "Ġfiloso": 4245,
      "Ġlasciare": 4246,
      "Ġultime": 4247,
      "ĠCosÃ¬": 4248,
      "Ġcamera": 4249,
      "incontro": 4250,
      "Ġavevo": 4251,
      "Ġcinema": 4252,
      "impre": 4253,
      "anitÃł": 4254,
      "Ġaspetto": 4255,
      "esca": 4256,
      "Ġmoglie": 4257,
      "PO": 4258,
      "Ġalti": 4259,
      "Ġpsicolo": 4260,
      "ruppo": 4261,
      "Ġolio": 4262,
      "cchie": 4263,
      "Ġfiori": 4264,
      "Ġlotta": 4265,
      "Ġfrancese": 4266,
      "gliare": 4267,
      "Ġpul": 4268,
      "Ġgestire": 4269,
      "Ġvale": 4270,
      "uola": 4271,
      "unedÃ¬": 4272,
      "ensi": 4273,
      "Ġmisure": 4274,
      "Ġitaliane": 4275,
      "90": 4276,
      "Ġentrambi": 4277,
      "Ġtemi": 4278,
      "Ġprecedenti": 4279,
      "Ġpartenza": 4280,
      "gro": 4281,
      "Ġdevi": 4282,
      "Ġsplen": 4283,
      "Ġsegno": 4284,
      "Ġanalisi": 4285,
      "Ġurb": 4286,
      "ende": 4287,
      "Ġutilizzati": 4288,
      "Ġtraccia": 4289,
      "ot": 4290,
      "Nella": 4291,
      "Ġsub": 4292,
      "attenzione": 4293,
      "sciu": 4294,
      "Ġpossibili": 4295,
      "Ġcontrario": 4296,
      "Ġformu": 4297,
      "Ġchiesto": 4298,
      "Ġcarica": 4299,
      "Ġinternazionali": 4300,
      "var": 4301,
      "Ġsiete": 4302,
      "Ġson": 4303,
      "Ġcompagnia": 4304,
      "wit": 4305,
      "Ġconferma": 4306,
      "Ġnutri": 4307,
      "Ġlinee": 4308,
      "enn": 4309,
      "Ġmedio": 4310,
      "sili": 4311,
      "Ġcreazione": 4312,
      "Ġulteriori": 4313,
      "Ġagi": 4314,
      "ĠNatale": 4315,
      "ps": 4316,
      "Ġmembri": 4317,
      "Ġcercando": 4318,
      "ding": 4319,
      "Fi": 4320,
      "ĠInternet": 4321,
      "Ġchiesa": 4322,
      "Ġformato": 4323,
      "istica": 4324,
      "Ġprovare": 4325,
      "Ġmiglia": 4326,
      "Ġquarti": 4327,
      "Ġnomina": 4328,
      "Ġcreato": 4329,
      "Ġbeni": 4330,
      "Ġessendo": 4331,
      "Ġpensato": 4332,
      "Ġsottop": 4333,
      "Ġnotizie": 4334,
      "ers": 4335,
      "stato": 4336,
      "ĠAt": 4337,
      "Ġidea": 4338,
      "cate": 4339,
      "Ġstorie": 4340,
      "Ġrecen": 4341,
      "Ġspirito": 4342,
      "Ġprofessionisti": 4343,
      "Ġnumeri": 4344,
      "Ġchiama": 4345,
      "rÃ²": 4346,
      "orno": 4347,
      "ĠAll": 4348,
      "Ġferro": 4349,
      "ĠMA": 4350,
      "ĠCit": 4351,
      "Ġutilizzando": 4352,
      "ĠQui": 4353,
      "Ġriuni": 4354,
      "Ġcompleto": 4355,
      "Ġimmagina": 4356,
      "Ġgratis": 4357,
      "Ġoli": 4358,
      "Ġpasta": 4359,
      "Ġpoteva": 4360,
      "ĠRom": 4361,
      "Ġdocumento": 4362,
      "acquisto": 4363,
      "Ġiniziative": 4364,
      "Ġconfronto": 4365,
      "orme": 4366,
      "Ġrespi": 4367,
      "Ġdispositivo": 4368,
      "ĠLib": 4369,
      "Ġconseguenza": 4370,
      "Ġleggi": 4371,
      "Ġconsuma": 4372,
      "Che": 4373,
      "Ġprossimi": 4374,
      "ĠCli": 4375,
      "forme": 4376,
      "Ecco": 4377,
      "ĠGiuseppe": 4378,
      "Ġsituazioni": 4379,
      "Associazione": 4380,
      "ĠPRO": 4381,
      "Ġdifesa": 4382,
      "ĠSecondo": 4383,
      "Ġchiedere": 4384,
      "del": 4385,
      "Ġdocumenti": 4386,
      "Ġlista": 4387,
      "blio": 4388,
      "ĠCarlo": 4389,
      "Ġprofilo": 4390,
      "ĠlÃł": 4391,
      "tiamo": 4392,
      "US": 4393,
      "Ġcento": 4394,
      "Ġcomponenti": 4395,
      "Ġimpianti": 4396,
      "erato": 4397,
      "Ġstrade": 4398,
      "can": 4399,
      "Ġogn": 4400,
      "Ġlontano": 4401,
      "Ġsuperficie": 4402,
      "Ġevidente": 4403,
      "Ġfia": 4404,
      "Ġarchite": 4405,
      "Ġprocessi": 4406,
      "rab": 4407,
      "ĠFirenze": 4408,
      "Ġvoglio": 4409,
      "Ġmediante": 4410,
      "PI": 4411,
      "Ġpressione": 4412,
      "Ġvogliono": 4413,
      "unt": 4414,
      "Ġriguardo": 4415,
      "Ġaggiungere": 4416,
      "Ġpiattaforma": 4417,
      "ĠOn": 4418,
      "teriore": 4419,
      "epoca": 4420,
      "Ġcontributo": 4421,
      "Ġmiglior": 4422,
      "inato": 4423,
      "ĠSci": 4424,
      "Ġricevere": 4425,
      "ĠCommissione": 4426,
      "dotti": 4427,
      "ĠSco": 4428,
      "Ġallena": 4429,
      "Ġnato": 4430,
      "Ġminimo": 4431,
      "Ġsucce": 4432,
      "ĠGe": 4433,
      "mpe": 4434,
      "FI": 4435,
      "Su": 4436,
      "lizzata": 4437,
      "Ġalcuna": 4438,
      "gendo": 4439,
      "Ġcompetenze": 4440,
      "Ġpredi": 4441,
      "Ġverranno": 4442,
      "Ġreso": 4443,
      "Ġperfetto": 4444,
      "DE": 4445,
      "Ġcucchia": 4446,
      "issimo": 4447,
      "ĠGrazie": 4448,
      "hn": 4449,
      "gici": 4450,
      "Ġelabo": 4451,
      "Ġpotenza": 4452,
      "Ġdubbio": 4453,
      "Ġradio": 4454,
      "vacy": 4455,
      "Ġcaff": 4456,
      "Ġtrasporto": 4457,
      "ĠDom": 4458,
      "Ġviss": 4459,
      "Ġmanifestazione": 4460,
      "Ġattesa": 4461,
      "ĠTutti": 4462,
      "les": 4463,
      "erare": 4464,
      "Ġnazionali": 4465,
      "Ġsoggetto": 4466,
      "Ġrelativi": 4467,
      "ĠTro": 4468,
      "Ġmobili": 4469,
      "Ġtecnologie": 4470,
      "state": 4471,
      "scin": 4472,
      "Ġbagno": 4473,
      "Ġ196": 4474,
      "Ġsemi": 4475,
      "Ġridurre": 4476,
      "Ġaccedere": 4477,
      "VO": 4478,
      "Ġcaval": 4479,
      "ĠiP": 4480,
      "ĠEdi": 4481,
      "Ġsinto": 4482,
      "ant": 4483,
      "organizzazione": 4484,
      "Ġcapito": 4485,
      "ĠAlessand": 4486,
      "ĠOgni": 4487,
      "Ġartisti": 4488,
      "ĠSpe": 4489,
      "Ġcomplesso": 4490,
      "Ġaumentare": 4491,
      "ppone": 4492,
      "Ġesplo": 4493,
      "Ġinizio": 4494,
      "inge": 4495,
      "qua": 4496,
      "Ġprogrammi": 4497,
      "Ġpremi": 4498,
      "ttica": 4499,
      "ĠopportunitÃł": 4500,
      "missioni": 4501,
      "Ġsolle": 4502,
      "Ġoperazioni": 4503,
      "Ġmoto": 4504,
      "Ġquota": 4505,
      "Ġpossano": 4506,
      "ĠWindows": 4507,
      "ergia": 4508,
      "Ġromanzo": 4509,
      "Ġpaio": 4510,
      "Ġpanora": 4511,
      "Ġesclusivamente": 4512,
      "fine": 4513,
      "Ġinterro": 4514,
      "Ġgiocatori": 4515,
      "rigi": 4516,
      "Ġdet": 4517,
      "sima": 4518,
      "Ġcontinuare": 4519,
      "Ġbatta": 4520,
      "Ġscelte": 4521,
      "ttamento": 4522,
      "omici": 4523,
      "vel": 4524,
      "enziali": 4525,
      "ĠBologna": 4526,
      "Ġbenessere": 4527,
      "spe": 4528,
      "Ġrispondere": 4529,
      "Ġscrive": 4530,
      "Ġfarsi": 4531,
      "Ġricorda": 4532,
      "ndo": 4533,
      "Ġclassifica": 4534,
      "fie": 4535,
      "Ġumana": 4536,
      "rli": 4537,
      "allo": 4538,
      "estate": 4539,
      "Ġap": 4540,
      "ossibile": 4541,
      "Ġgamma": 4542,
      "log": 4543,
      "Ġvittoria": 4544,
      "Ġdichiarato": 4545,
      "Ġsosp": 4546,
      "fficienza": 4547,
      "Ġaccade": 4548,
      "Ġapplicazioni": 4549,
      "Ġinteressi": 4550,
      "Ġdispositivi": 4551,
      "rvi": 4552,
      "renza": 4553,
      "Ġvenne": 4554,
      "Ġannunci": 4555,
      "UN": 4556,
      "Ġprossima": 4557,
      "ormi": 4558,
      "Ġtutela": 4559,
      "Ne": 4560,
      "Ġmetter": 4561,
      "Ġfisica": 4562,
      "ĠAng": 4563,
      "Ġdevo": 4564,
      "Ġfurono": 4565,
      "Ġhotel": 4566,
      "Ġface": 4567,
      "Ġsplendi": 4568,
      "Ġcomunale": 4569,
      "Ġpomeriggio": 4570,
      "im": 4571,
      "ĠAndrea": 4572,
      "dimenti": 4573,
      "Ġdecora": 4574,
      "Ġamico": 4575,
      "Ġscari": 4576,
      "ĠTutto": 4577,
      "Ġprincipi": 4578,
      "Ġdistur": 4579,
      "Ġprofonda": 4580,
      "Sa": 4581,
      "Ġiniziare": 4582,
      "Ġoperatori": 4583,
      "ĠGermania": 4584,
      "mbio": 4585,
      "Ġeccell": 4586,
      "Ġ#": 4587,
      "lus": 4588,
      "stenti": 4589,
      "usura": 4590,
      "uali": 4591,
      "Ġpian": 4592,
      "Ġtecnici": 4593,
      "Ġcapace": 4594,
      "Ġringra": 4595,
      "Ġorigine": 4596,
      "Ġripa": 4597,
      "gnano": 4598,
      "Ġpreparazione": 4599,
      "Ġsorta": 4600,
      "70": 4601,
      "Ġnormale": 4602,
      "Ġres": 4603,
      "Ġfacili": 4604,
      "ill": 4605,
      "dor": 4606,
      "voro": 4607,
      "Ġdisciplina": 4608,
      "ermo": 4609,
      "Ġaiutare": 4610,
      "vile": 4611,
      "Ġsoffer": 4612,
      "Ġobiettivo": 4613,
      "Ġragazze": 4614,
      "ĠSil": 4615,
      "Ġaperta": 4616,
      "Ġspecifico": 4617,
      "mentale": 4618,
      "Ġaumento": 4619,
      "vello": 4620,
      "ĠPaesi": 4621,
      "Ġragazzo": 4622,
      "Ġreddi": 4623,
      "Ġpronto": 4624,
      "merica": 4625,
      "Ġnumerose": 4626,
      "Ġindos": 4627,
      "Ġobbliga": 4628,
      "ĠFonda": 4629,
      "uovo": 4630,
      "Ġlunghe": 4631,
      "Ġventi": 4632,
      "fort": 4633,
      "Ġgener": 4634,
      "Ġsorri": 4635,
      "Ġdover": 4636,
      "Ġrelative": 4637,
      "Inter": 4638,
      "Ġottimi": 4639,
      "tani": 4640,
      "Ġcostruire": 4641,
      "Ġrelazioni": 4642,
      "Ġimpegno": 4643,
      "Ġspiri": 4644,
      "Ġricordo": 4645,
      "Ġmotiva": 4646,
      "Ġmaschi": 4647,
      "Ġcommerciali": 4648,
      "modifica": 4649,
      "grazione": 4650,
      "inizia": 4651,
      "verÃł": 4652,
      "Ġsogno": 4653,
      "ĠDE": 4654,
      "Ġcombina": 4655,
      "Ġposta": 4656,
      "Ġimpedi": 4657,
      "Ġconcetto": 4658,
      "Ġafferma": 4659,
      "Ġsfida": 4660,
      "Ġvilla": 4661,
      "Ġperso": 4662,
      "hone": 4663,
      "Ġpreoccupa": 4664,
      "Ġfarmaci": 4665,
      "Ġcredito": 4666,
      "ance": 4667,
      "teca": 4668,
      "45": 4669,
      "Ġcredi": 4670,
      "Ġextra": 4671,
      "cuzione": 4672,
      "Ġappunto": 4673,
      "Ġbigli": 4674,
      "Ġcontemporanea": 4675,
      "applicazione": 4676,
      "Ġprotagonisti": 4677,
      "accesso": 4678,
      "Ġusato": 4679,
      "Ġluci": 4680,
      "Ġnascita": 4681,
      "Ġvolume": 4682,
      "ĠMen": 4683,
      "Ġtelefono": 4684,
      "ĠDel": 4685,
      "Ġcentri": 4686,
      "Ġcostre": 4687,
      "Ġrichiede": 4688,
      "Ġattre": 4689,
      "minato": 4690,
      "giche": 4691,
      "sio": 4692,
      "Ġparlato": 4693,
      "tch": 4694,
      "Ġdiversa": 4695,
      "ĠMer": 4696,
      "Ġmatrimonio": 4697,
      "anima": 4698,
      "mine": 4699,
      "Ġnessuna": 4700,
      "ĠVe": 4701,
      "Ġtrib": 4702,
      "rmi": 4703,
      "Ġsostitui": 4704,
      "22": 4705,
      "So": 4706,
      "associazione": 4707,
      "Ġpie": 4708,
      "testo": 4709,
      "Ġpiatto": 4710,
      "ĠSh": 4711,
      "Ġmonito": 4712,
      "enzia": 4713,
      "Ġcosci": 4714,
      "Ġazione": 4715,
      "Ġprincipio": 4716,
      "Ġillustra": 4717,
      "Ġqualunque": 4718,
      "stituto": 4719,
      "Ġsullo": 4720,
      "Ġeuropeo": 4721,
      "ĠWeb": 4722,
      "informa": 4723,
      "Ġcambio": 4724,
      "ent": 4725,
      "Ġcosid": 4726,
      "ppio": 4727,
      "Ġquadro": 4728,
      "Ġricos": 4729,
      "Ġsufficiente": 4730,
      "stina": 4731,
      "Ġenti": 4732,
      "intera": 4733,
      "Ġblu": 4734,
      "ĠDani": 4735,
      "Ġcommerciale": 4736,
      "Ġbusiness": 4737,
      "vimenti": 4738,
      "Ġana": 4739,
      "Ġdef": 4740,
      "offerta": 4741,
      "Mo": 4742,
      "Ġapposi": 4743,
      "Ġcambiamento": 4744,
      "Ġpaziente": 4745,
      "iale": 4746,
      "rur": 4747,
      "ĠDavi": 4748,
      "onalitÃł": 4749,
      "ĠAntonio": 4750,
      "Ġprofon": 4751,
      "Ġflu": 4752,
      "Ġclima": 4753,
      "Ġcontrolla": 4754,
      "lizzati": 4755,
      "Ġtradizionale": 4756,
      "Ġimmediatamente": 4757,
      "ĠNord": 4758,
      "Ġpersonaggio": 4759,
      "Ġsequ": 4760,
      "Ġmila": 4761,
      "Unione": 4762,
      "Ġgol": 4763,
      "Ġcaldo": 4764,
      "Ġtratti": 4765,
      "scon": 4766,
      "ĠCO": 4767,
      "Ġviolenza": 4768,
      "ĠLuca": 4769,
      "Ġrinno": 4770,
      "ĠKa": 4771,
      "Ġcru": 4772,
      "Ġricevuto": 4773,
      "Ġsingolo": 4774,
      "ĠAlla": 4775,
      "ssero": 4776,
      "Ġpermesso": 4777,
      "Ġcielo": 4778,
      "Ġrilascia": 4779,
      "Ġdena": 4780,
      "edono": 4781,
      "raneo": 4782,
      "arma": 4783,
      "Ġriduzione": 4784,
      "ĠCorte": 4785,
      "ĠSignore": 4786,
      "Ġunica": 4787,
      "Ġepiso": 4788,
      "Ġnorme": 4789,
      "Ġpertanto": 4790,
      "vie": 4791,
      "zioso": 4792,
      "Ġgrave": 4793,
      "tevi": 4794,
      "Ġsguardo": 4795,
      "logica": 4796,
      "99": 4797,
      "Ġsperanza": 4798,
      "tarie": 4799,
      "Ġpagare": 4800,
      "Ġlasciato": 4801,
      "Ġlimiti": 4802,
      "Ġcarriera": 4803,
      "Pri": 4804,
      "messa": 4805,
      "ĠfunzionalitÃł": 4806,
      "Ġterza": 4807,
      "Ġministro": 4808,
      "Ġsfo": 4809,
      "Ġnetwork": 4810,
      "ire": 4811,
      "accordo": 4812,
      "droid": 4813,
      "ĠCha": 4814,
      "Ġspecifica": 4815,
      "Ġvantaggio": 4816,
      "vizz": 4817,
      "Ġchilo": 4818,
      "anne": 4819,
      "struttura": 4820,
      "ĠVenezia": 4821,
      "Ġottimo": 4822,
      "Ġpunta": 4823,
      "erop": 4824,
      "denze": 4825,
      "ĠInterna": 4826,
      "Ġconsumo": 4827,
      "Ġcorte": 4828,
      "Ġpresa": 4829,
      "pito": 4830,
      "Ġpromozione": 4831,
      "Ġlaure": 4832,
      "Ġchat": 4833,
      "osci": 4834,
      "Ġautore": 4835,
      "ggiato": 4836,
      "ttu": 4837,
      "Ġprivati": 4838,
      "Ġinsi": 4839,
      "tional": 4840,
      "talmente": 4841,
      "tola": 4842,
      "nia": 4843,
      "Ġportata": 4844,
      "Ġdura": 4845,
      "impa": 4846,
      "lti": 4847,
      "Ġpolizia": 4848,
      "Ġlegis": 4849,
      "Ġaggiunge": 4850,
      "Ġmamma": 4851,
      "umere": 4852,
      "Ġvinci": 4853,
      "Ġfenomeno": 4854,
      "Ġstiamo": 4855,
      "mori": 4856,
      "tusia": 4857,
      "ervi": 4858,
      "Ġnord": 4859,
      "eserci": 4860,
      "osso": 4861,
      "Io": 4862,
      "Ġchiamato": 4863,
      "EC": 4864,
      "ĠProvin": 4865,
      "Ġrispetti": 4866,
      "Ġmancanza": 4867,
      "lico": 4868,
      "entemente": 4869,
      "Ġdar": 4870,
      "olio": 4871,
      "cni": 4872,
      "ĠQuindi": 4873,
      "ĠSI": 4874,
      "crizione": 4875,
      "Ġemozioni": 4876,
      "Ġsuppor": 4877,
      "Ġpremio": 4878,
      "Ġpartecipanti": 4879,
      "Ġdele": 4880,
      "mal": 4881,
      "Ġgiuri": 4882,
      "ĠBen": 4883,
      "ja": 4884,
      "Ġspesa": 4885,
      "Ġassociazioni": 4886,
      "ces": 4887,
      "bbene": 4888,
      "Ġaiuto": 4889,
      "Ġguardare": 4890,
      "ercati": 4891,
      "Ġaltra": 4892,
      "Ġmaggioranza": 4893,
      "Ġsimili": 4894,
      "Ġpaesa": 4895,
      "ĠSpi": 4896,
      "cante": 4897,
      "ĠSuper": 4898,
      "gnare": 4899,
      "Ġciclo": 4900,
      "Ġprospetti": 4901,
      "ĠâĢĻ": 4902,
      "Ġmotore": 4903,
      "Ġimb": 4904,
      "ĠVol": 4905,
      "Ġcompagni": 4906,
      "intervento": 4907,
      "ĠLin": 4908,
      "Ġsarebbero": 4909,
      "Ġdecreto": 4910,
      "gore": 4911,
      "ĠEl": 4912,
      "ĠStra": 4913,
      "vante": 4914,
      "Ġinferiore": 4915,
      "Ġistru": 4916,
      "iniziativa": 4917,
      "Ġmarketing": 4918,
      "fre": 4919,
      "Ġaere": 4920,
      "Ġimprendi": 4921,
      "Ġtemperatura": 4922,
      "Ġteatro": 4923,
      "Ġsape": 4924,
      "ĠRI": 4925,
      "unzione": 4926,
      "ĠContinua": 4927,
      "Ġbos": 4928,
      "Ġdesiderio": 4929,
      "intero": 4930,
      "Ġforno": 4931,
      "Ġrisa": 4932,
      "vedÃ¬": 4933,
      "Ġmono": 4934,
      "rus": 4935,
      "Ġinteressanti": 4936,
      "Ġcondu": 4937,
      "librio": 4938,
      "prio": 4939,
      "ffe": 4940,
      "economia": 4941,
      "Ġvisitare": 4942,
      "die": 4943,
      "Ġimposta": 4944,
      "Ġdimensione": 4945,
      "Ġavviene": 4946,
      "Ġimmobili": 4947,
      "Ġversa": 4948,
      "Ġfondi": 4949,
      "ĠVilla": 4950,
      "Ġvecchio": 4951,
      "mpre": 4952,
      "talitÃł": 4953,
      "ĠSud": 4954,
      "detta": 4955,
      "Ġbordo": 4956,
      "Ġtorn": 4957,
      "Ġpatrimonio": 4958,
      "ĠSU": 4959,
      "Ġdifferenti": 4960,
      "ingle": 4961,
      "--------": 4962,
      "Ġesti": 4963,
      "Ġsel": 4964,
      "Ġfrutto": 4965,
      "dali": 4966,
      "En": 4967,
      "ĠPalazzo": 4968,
      "Ġferi": 4969,
      "Ġassistenza": 4970,
      "Ġdenaro": 4971,
      "ĠBri": 4972,
      "Ġfemminile": 4973,
      "Ġrit": 4974,
      "Ġdenuncia": 4975,
      "Li": 4976,
      "Ġritor": 4977,
      "lievo": 4978,
      "ONE": 4979,
      "ĠvenerdÃ¬": 4980,
      "Ġcamere": 4981,
      "ttime": 4982,
      "Ġtratto": 4983,
      "Ġpio": 4984,
      "Ġcosta": 4985,
      "ĠCer": 4986,
      "Ġfinis": 4987,
      "Ġconfli": 4988,
      "duti": 4989,
      "Ġvege": 4990,
      "Ġcollezione": 4991,
      "cone": 4992,
      "Ġattualmente": 4993,
      "Ġterreno": 4994,
      "Ġcast": 4995,
      "gar": 4996,
      "Ġcircon": 4997,
      "ĠTerra": 4998,
      "ĠVI": 4999,
      "Ġ2007": 5000,
      "Grazie": 5001,
      "ĠPietro": 5002,
      "Ġ70": 5003,
      "Ġvivo": 5004,
      "ĠGui": 5005,
      "Ġnavigazione": 5006,
      "Ġcontribu": 5007,
      "Ġscoperta": 5008,
      "Ġiso": 5009,
      "Ġgenerazione": 5010,
      "23": 5011,
      "Ġdipendenti": 5012,
      "onata": 5013,
      "Ġpezzi": 5014,
      "Ġuscire": 5015,
      "Ġcoltiva": 5016,
      "stitui": 5017,
      "utato": 5018,
      "Ġfarina": 5019,
      "ĠdisponibilitÃł": 5020,
      "Ġistituzioni": 5021,
      "Ġmigliaia": 5022,
      "appro": 5023,
      "Ġmarchio": 5024,
      "Ġvogliamo": 5025,
      "...]": 5026,
      "Ġattrib": 5027,
      "Ġconsiderato": 5028,
      "onti": 5029,
      "http": 5030,
      "Ġnegozi": 5031,
      "Ġesten": 5032,
      "ĠAndroid": 5033,
      "gene": 5034,
      "Ġdida": 5035,
      "ĠCons": 5036,
      "Ġconosce": 5037,
      "ezione": 5038,
      "Ġrea": 5039,
      "Ġcerta": 5040,
      "Ġegli": 5041,
      "Ġporte": 5042,
      "Ġrisposte": 5043,
      "metro": 5044,
      "asse": 5045,
      "wser": 5046,
      "Ġcomma": 5047,
      "Ġcondividere": 5048,
      "ĠFu": 5049,
      "ĠGro": 5050,
      "Ġmalattie": 5051,
      "rno": 5052,
      "Ġdomani": 5053,
      "Ġmille": 5054,
      "ĠAbbiamo": 5055,
      "Ġstar": 5056,
      "Ġcompito": 5057,
      "Ġambito": 5058,
      "ĠAN": 5059,
      "Ġfondamentali": 5060,
      "Ġtrasparen": 5061,
      "ĠFestival": 5062,
      "Ġnomi": 5063,
      "Ġ35": 5064,
      "Ġdecen": 5065,
      "Ġproposito": 5066,
      "liano": 5067,
      "Ġdieta": 5068,
      "Ġingredienti": 5069,
      "mbia": 5070,
      "Ġcampionato": 5071,
      "erimento": 5072,
      "Ġgr": 5073,
      "Ġconsiderazione": 5074,
      "chezza": 5075,
      "lizzare": 5076,
      "Ġmarito": 5077,
      "ĠTuttavia": 5078,
      "Ġdollari": 5079,
      "Ġculturali": 5080,
      "Ġmedicina": 5081,
      "Ġultimo": 5082,
      "bba": 5083,
      "Ġprovenienti": 5084,
      "De": 5085,
      "deva": 5086,
      "ĠCOM": 5087,
      "detti": 5088,
      "ĠYork": 5089,
      "Ġtitoli": 5090,
      "Ġstelle": 5091,
      "ore": 5092,
      "mbolo": 5093,
      "analisi": 5094,
      "Ġmorbi": 5095,
      "Ġclassico": 5096,
      "sile": 5097,
      "Ġprocedura": 5098,
      "ĠLond": 5099,
      "Ġottenuto": 5100,
      "Ġscio": 5101,
      "Ġcorsa": 5102,
      "Ġspecifiche": 5103,
      "teranno": 5104,
      "Ġaccetta": 5105,
      "ĠComuni": 5106,
      "Ġintelli": 5107,
      "Ġnucle": 5108,
      "ong": 5109,
      "Ġcritica": 5110,
      "Ġvantaggi": 5111,
      "Ġquotidiana": 5112,
      "rietÃł": 5113,
      "andi": 5114,
      "pressione": 5115,
      "Ġbocca": 5116,
      "Ġrientra": 5117,
      "ĠÃ©": 5118,
      "zzate": 5119,
      "ves": 5120,
      "estero": 5121,
      "ĠLega": 5122,
      "Ġfle": 5123,
      "eme": 5124,
      "Ġaprire": 5125,
      "Ġmangiare": 5126,
      "Ġcontiene": 5127,
      "Ġricordare": 5128,
      "Ġaggiunto": 5129,
      "zzar": 5130,
      "Ġrifiuti": 5131,
      "ĠApple": 5132,
      "Ġcaccia": 5133,
      "ĠEmi": 5134,
      "ggiamento": 5135,
      "Ġattuale": 5136,
      "Ġclini": 5137,
      "ĠSoci": 5138,
      "Ġbrand": 5139,
      "rona": 5140,
      "Ġgaranzia": 5141,
      "we": 5142,
      "Ġ500": 5143,
      "Ġcondanna": 5144,
      "Ġpubblicazione": 5145,
      "Ġrivi": 5146,
      "Ġpolitici": 5147,
      "ffico": 5148,
      "Ġreligi": 5149,
      "inci": 5150,
      "ĠBene": 5151,
      "ĠSul": 5152,
      "somma": 5153,
      "Ġselezione": 5154,
      "Ġtroviamo": 5155,
      "ĠQuesti": 5156,
      "Ġottima": 5157,
      "truzione": 5158,
      "grafica": 5159,
      "Ġrecupera": 5160,
      "ĠFe": 5161,
      "Ġmusicale": 5162,
      "Ġcollabora": 5163,
      "ĠFerra": 5164,
      "Ġnecessari": 5165,
      "Ġvoto": 5166,
      "Ġprove": 5167,
      "Ġfonte": 5168,
      "Ġfiglia": 5169,
      "ttive": 5170,
      "Ora": 5171,
      "ggiata": 5172,
      "ttivi": 5173,
      "Ġricco": 5174,
      "Ba": 5175,
      "Ġschermo": 5176,
      "wer": 5177,
      "ence": 5178,
      "inio": 5179,
      "int": 5180,
      "Ġperfor": 5181,
      "Ġraggiunto": 5182,
      "Ġcambi": 5183,
      "quisiti": 5184,
      "Ġognuno": 5185,
      "Ġfisico": 5186,
      "gando": 5187,
      "Ġarrivato": 5188,
      "Ġripren": 5189,
      "arda": 5190,
      "sÃ¬": 5191,
      "Ġsaper": 5192,
      "ĠfarÃł": 5193,
      "ĠEra": 5194,
      "tena": 5195,
      "ĠComi": 5196,
      "nella": 5197,
      "ĠAma": 5198,
      "Ġseguente": 5199,
      "ĠChia": 5200,
      "Ġpiatti": 5201,
      "21": 5202,
      "ĠSch": 5203,
      "Ġschia": 5204,
      "Ġpis": 5205,
      "TTI": 5206,
      "Ġtenuto": 5207,
      "Ġpotrete": 5208,
      "Ġestremamente": 5209,
      "Ġvicenda": 5210,
      "Ġtaglia": 5211,
      "Ġsconfi": 5212,
      "let": 5213,
      "tÃ¹": 5214,
      "dom": 5215,
      "Ġperfettamente": 5216,
      "Ġpreventi": 5217,
      "Ġaccogli": 5218,
      "Ġspos": 5219,
      "Ġwiki": 5220,
      "Ġsoggior": 5221,
      "Ġcomincia": 5222,
      "Ġ90": 5223,
      "Ġoccorre": 5224,
      "Ġinsegn": 5225,
      "Ġconcorso": 5226,
      "Ġristorante": 5227,
      "ĠcaffÃ¨": 5228,
      "Ġpiane": 5229,
      "Ġumi": 5230,
      "Ġadulti": 5231,
      "Ġvostre": 5232,
      "ĠCH": 5233,
      "gs": 5234,
      "Ġmobile": 5235,
      "erire": 5236,
      "Ġchiusura": 5237,
      "arco": 5238,
      "hotel": 5239,
      "Ġaumen": 5240,
      "Ġdimin": 5241,
      "Ġnegozio": 5242,
      "Ġgiun": 5243,
      "Ġsposta": 5244,
      "Ġprogressi": 5245,
      "39": 5246,
      "Ġcrema": 5247,
      "Ġmira": 5248,
      "Ġconquis": 5249,
      "Ġsopravvi": 5250,
      "Ġspalle": 5251,
      "Ġartigi": 5252,
      "xy": 5253,
      "Ġirri": 5254,
      "zionato": 5255,
      "entali": 5256,
      "Ġguard": 5257,
      "Ġofferta": 5258,
      "soft": 5259,
      "Ġgiudizio": 5260,
      "Ġracconto": 5261,
      "Ġprose": 5262,
      "torie": 5263,
      "ĠColle": 5264,
      "parti": 5265,
      "Ġpurtroppo": 5266,
      "Ġorganizzato": 5267,
      "ĠCe": 5268,
      "Ġnascon": 5269,
      "erata": 5270,
      "Ġsignificato": 5271,
      "Ġcomprendere": 5272,
      "Ġstrategia": 5273,
      "Ġbici": 5274,
      "Ġconsider": 5275,
      "Ġfabb": 5276,
      "Ġfalli": 5277,
      "ĠPA": 5278,
      "Ġvacanza": 5279,
      "Ġdettaglio": 5280,
      "ĠPapa": 5281,
      "canze": 5282,
      "Ġbilancio": 5283,
      "ĠLE": 5284,
      "cli": 5285,
      "Ġpena": 5286,
      "Ġcrescere": 5287,
      "Ġcommenti": 5288,
      "Ġbuoni": 5289,
      "ĠAv": 5290,
      "ĠunitÃł": 5291,
      "Ġcomunica": 5292,
      "Ġraccom": 5293,
      "ontan": 5294,
      "ttivitÃł": 5295,
      "Ġgiocatore": 5296,
      "Ġrecupero": 5297,
      "Ġprivato": 5298,
      "ciano": 5299,
      "Ġdisse": 5300,
      "Ġsostenere": 5301,
      "zare": 5302,
      "visione": 5303,
      "Ġbrowser": 5304,
      "Ġfunzionamento": 5305,
      "SS": 5306,
      "Ġsubi": 5307,
      "lab": 5308,
      "orsi": 5309,
      "Ġcertamente": 5310,
      "Ġesistono": 5311,
      "Dal": 5312,
      "Ġparco": 5313,
      "pie": 5314,
      "Ġsemb": 5315,
      "!!!": 5316,
      "Ġugu": 5317,
      "ĠÂ": 5318,
      "ĠSar": 5319,
      "Ġsotti": 5320,
      "Ġregistrazione": 5321,
      "Ġpossesso": 5322,
      "ombar": 5323,
      "Ġammi": 5324,
      "Ġcusto": 5325,
      "ĠSiamo": 5326,
      "Ġambientale": 5327,
      "Ġdovrebbero": 5328,
      "Ġocca": 5329,
      "Ġlegger": 5330,
      "eek": 5331,
      "Ġopp": 5332,
      "Ġappuntamento": 5333,
      "stron": 5334,
      "tteo": 5335,
      "cenze": 5336,
      "ĠTV": 5337,
      "Ġmede": 5338,
      "ppiamo": 5339,
      "Ġsolida": 5340,
      "Ġanticipa": 5341,
      "Ġincom": 5342,
      "Ġcirco": 5343,
      "Ġceleb": 5344,
      "epi": 5345,
      "Ġciocco": 5346,
      "enco": 5347,
      "Ġmana": 5348,
      "Ġvini": 5349,
      "Ġgas": 5350,
      "cuni": 5351,
      "Ġdiscussione": 5352,
      "Ġragioni": 5353,
      "Ġfrutta": 5354,
      "Ġfattori": 5355,
      "Ġrisolvere": 5356,
      "Ġospe": 5357,
      "MENTO": 5358,
      "Ġriba": 5359,
      "Ġrichie": 5360,
      "dustria": 5361,
      "Ġpiante": 5362,
      "Ġuscita": 5363,
      "Ġcarte": 5364,
      "Ġlimite": 5365,
      "Ġsostanze": 5366,
      "Ġconi": 5367,
      "Oggi": 5368,
      "ĠMicro": 5369,
      "lanti": 5370,
      "ingresso": 5371,
      "Ġbanche": 5372,
      "sche": 5373,
      "Ġinserire": 5374,
      "ĠCamp": 5375,
      "ĠOltre": 5376,
      "ĠMinistero": 5377,
      "Ġmeccan": 5378,
      "tello": 5379,
      "Ġcomportamento": 5380,
      "Ġelemento": 5381,
      "Ġnata": 5382,
      "Ġrim": 5383,
      "Ġinser": 5384,
      "Ġsilen": 5385,
      "Ġlegi": 5386,
      "Ġcamp": 5387,
      "Ġcena": 5388,
      "tabile": 5389,
      "ĠQual": 5390,
      "ĠPiazza": 5391,
      "Ġcomun": 5392,
      "Ġvigi": 5393,
      "Ġricer": 5394,
      "Ġperman": 5395,
      "Ġrimb": 5396,
      "Ġprosegui": 5397,
      "ĠSicilia": 5398,
      "Ġviva": 5399,
      "ĠBre": 5400,
      "ĠFondazione": 5401,
      "Ġprese": 5402,
      "Ġrosa": 5403,
      "Ġcircos": 5404,
      "Ġapplicazione": 5405,
      "Ġgiardino": 5406,
      "ĠInfatti": 5407,
      "ĠMario": 5408,
      "Ġneanche": 5409,
      "xi": 5410,
      "ĠSca": 5411,
      "Ġprofessionali": 5412,
      "ĠCina": 5413,
      "Ġtavolo": 5414,
      "Ġfossero": 5415,
      "Ġtraffico": 5416,
      "aff": 5417,
      "Ġavendo": 5418,
      "IO": 5419,
      "witter": 5420,
      "Ġconfigu": 5421,
      "Ġfonti": 5422,
      "Ġdefinizione": 5423,
      "Ġintende": 5424,
      "toni": 5425,
      "Ġdiba": 5426,
      "sori": 5427,
      "Ġdecisamente": 5428,
      "nel": 5429,
      "umu": 5430,
      "35": 5431,
      "âĢĶ": 5432,
      "ĠGian": 5433,
      "ziosi": 5434,
      "Ġcirc": 5435,
      "mosfera": 5436,
      "Ġattorno": 5437,
      "Ġdep": 5438,
      "essioni": 5439,
      "Ġriporta": 5440,
      "ĠTos": 5441,
      "Ġaffin": 5442,
      "nali": 5443,
      "red": 5444,
      "ĠStefano": 5445,
      "Ġguarda": 5446,
      "Ġarte": 5447,
      "Ġviaggi": 5448,
      "Ġirre": 5449,
      "fr": 5450,
      "Ġpresentare": 5451,
      "Ġtv": 5452,
      "derlo": 5453,
      "Ġdistribuzione": 5454,
      "Ġgiustizia": 5455,
      "Ġconsenso": 5456,
      "ĠGoverno": 5457,
      "nata": 5458,
      "Ġtedes": 5459,
      "Ġsposa": 5460,
      "luzione": 5461,
      "ley": 5462,
      "Ġdiscorso": 5463,
      "Ġlum": 5464,
      "ANO": 5465,
      "mblea": 5466,
      "Ġmanca": 5467,
      "Ġeuropei": 5468,
      "Ġesposi": 5469,
      "van": 5470,
      "Ġconsen": 5471,
      "Ġmetro": 5472,
      "arre": 5473,
      "Ġcentina": 5474,
      "Ġsino": 5475,
      "ĠautoritÃł": 5476,
      "Ġsimbolo": 5477,
      "Ġsettori": 5478,
      "Ġampia": 5479,
      "Ġoro": 5480,
      "lack": 5481,
      "Ġlinguaggio": 5482,
      "Ġaffida": 5483,
      "Ġdovranno": 5484,
      "Ġsviluppare": 5485,
      "ĠGeno": 5486,
      "sconi": 5487,
      "Ġaccordo": 5488,
      "Ġsintomi": 5489,
      "Ġindirizzo": 5490,
      "Ġpropon": 5491,
      "Ġautomatica": 5492,
      "ĠQU": 5493,
      "Ġinvestimenti": 5494,
      "Ġparche": 5495,
      "Ġcompro": 5496,
      "Ġpezzo": 5497,
      "ctor": 5498,
      "ĠCosa": 5499,
      "gate": 5500,
      "Ġgoverna": 5501,
      "ĠSolo": 5502,
      "Ġlegati": 5503,
      "Ġdramma": 5504,
      ".)": 5505,
      "contra": 5506,
      "impresa": 5507,
      "imento": 5508,
      "orbi": 5509,
      "coledÃ¬": 5510,
      "Ġrifer": 5511,
      "Dis": 5512,
      "Ġglobale": 5513,
      "ĠMu": 5514,
      "Ġ80": 5515,
      "Ġpran": 5516,
      "26": 5517,
      "Ġage": 5518,
      "Ġripet": 5519,
      "ritÃł": 5520,
      "alta": 5521,
      "Ġimparare": 5522,
      "ller": 5523,
      "Ġaugu": 5524,
      "energia": 5525,
      "sion": 5526,
      "marsi": 5527,
      "volmente": 5528,
      "Ġcorrente": 5529,
      "Ġsimbo": 5530,
      "mozione": 5531,
      "ĠPd": 5532,
      "stalla": 5533,
      "ficati": 5534,
      "Ġfai": 5535,
      "Ġincredi": 5536,
      "ĠPC": 5537,
      "ĠProf": 5538,
      "Ġfelice": 5539,
      "Ġvenire": 5540,
      "rl": 5541,
      "erali": 5542,
      "inten": 5543,
      "Ġassieme": 5544,
      "dando": 5545,
      "Ġplu": 5546,
      "atte": 5547,
      "Ġrimanere": 5548,
      "Ġviso": 5549,
      "Ġere": 5550,
      "ĠAcc": 5551,
      "Ġsuccessivo": 5552,
      "terie": 5553,
      "Ġpromuovere": 5554,
      "Ġradica": 5555,
      "Ġterritori": 5556,
      "Ġpercorsi": 5557,
      "ĠUno": 5558,
      "ĠlunedÃ¬": 5559,
      "Ġambienti": 5560,
      "ĠHotel": 5561,
      "messe": 5562,
      "stre": 5563,
      "lto": 5564,
      "Ġinde": 5565,
      "Ġriconoscimento": 5566,
      "Ġarmi": 5567,
      "Ġvice": 5568,
      "Ġmedici": 5569,
      "Ġpane": 5570,
      "Ġprofu": 5571,
      "Ġinva": 5572,
      "Ġstri": 5573,
      "Ġriforma": 5574,
      "Ġdolci": 5575,
      "Ġbattaglia": 5576,
      "Ġchiamata": 5577,
      "Ġconosciuto": 5578,
      "Ġscene": 5579,
      "Ġanalizza": 5580,
      "dico": 5581,
      "Ġwikitesto": 5582,
      "Ġcolpo": 5583,
      "dute": 5584,
      "Ġby": 5585,
      "dibile": 5586,
      "Ġriuscire": 5587,
      "king": 5588,
      "ttando": 5589,
      "Ġbassa": 5590,
      "ME": 5591,
      "fri": 5592,
      "ficata": 5593,
      "28": 5594,
      "liamo": 5595,
      "Ġtranquil": 5596,
      "Ġgioia": 5597,
      "Ġstava": 5598,
      "Ġattiva": 5599,
      "Ġasciu": 5600,
      "Ġpilo": 5601,
      "Ġmeravigli": 5602,
      "Ġmone": 5603,
      "ismi": 5604,
      "Ġlegale": 5605,
      "Cosa": 5606,
      "Ġporto": 5607,
      "mance": 5608,
      "terra": 5609,
      "sante": 5610,
      "Ġdiffusione": 5611,
      "ĠSanto": 5612,
      "Ġfissa": 5613,
      "Cos": 5614,
      "Ġfaccio": 5615,
      "Ġabbiano": 5616,
      "Vo": 5617,
      "ĠEr": 5618,
      "Ġvento": 5619,
      "Ġresistenza": 5620,
      "ziamo": 5621,
      "ĠMuseo": 5622,
      "pati": 5623,
      "Ġpopolare": 5624,
      "Ġopini": 5625,
      "ĠWi": 5626,
      "Ġsvolta": 5627,
      "Ġmessaggi": 5628,
      "Ġ2000": 5629,
      "GLI": 5630,
      "Ġincre": 5631,
      "Ġtradizionali": 5632,
      "Ġsalva": 5633,
      "Ġspiaggia": 5634,
      "Ġvolo": 5635,
      "ool": 5636,
      "Ġritar": 5637,
      "inti": 5638,
      "Ġagri": 5639,
      "voca": 5640,
      "ĠPubbli": 5641,
      "ĠCapi": 5642,
      "Ġvincere": 5643,
      "Ġcittadino": 5644,
      "ĠÌ": 5645,
      "Ġconvi": 5646,
      "ĠOri": 5647,
      "rabini": 5648,
      "Ġdiventato": 5649,
      "ZIONI": 5650,
      "ĠGruppo": 5651,
      "Ġtour": 5652,
      "ĠJohn": 5653,
      "ĠZa": 5654,
      "ĠCamera": 5655,
      "Pu": 5656,
      "Ġmesco": 5657,
      "ull": 5658,
      "Ġille": 5659,
      "Ġpositivo": 5660,
      "27": 5661,
      "lusconi": 5662,
      "Ġverificare": 5663,
      "Ġrichia": 5664,
      "ĠCiÃ²": 5665,
      "TRA": 5666,
      "Ġimpossibile": 5667,
      "Ġchirur": 5668,
      "Ġ?": 5669,
      "Ġacquisto": 5670,
      "sho": 5671,
      "ĠMos": 5672,
      "Ġcottura": 5673,
      "Ġnecessarie": 5674,
      "Ġtessuto": 5675,
      "ade": 5676,
      "ĠBro": 5677,
      "Ġbasi": 5678,
      "Ġpermettono": 5679,
      "ĠHe": 5680,
      "CHE": 5681,
      "Ġria": 5682,
      "____": 5683,
      "PS": 5684,
      "onamento": 5685,
      "Ġ)": 5686,
      "Ġcommercio": 5687,
      "Ġindiri": 5688,
      "Ġvolto": 5689,
      "Ġsegue": 5690,
      "prese": 5691,
      "Ġcontraddi": 5692,
      "spensa": 5693,
      "Ġampio": 5694,
      "Ġsembrano": 5695,
      "Ġraffor": 5696,
      "giu": 5697,
      "Ġcatto": 5698,
      "arrivo": 5699,
      "Ġindipendente": 5700,
      "Ġ[...]": 5701,
      "Ġstanza": 5702,
      "Na": 5703,
      "pt": 5704,
      "ĠPas": 5705,
      "Ġregime": 5706,
      "gon": 5707,
      "Ġpelli": 5708,
      "Ġsostanza": 5709,
      "Ġvittime": 5710,
      "Secondo": 5711,
      "Ġricca": 5712,
      "ĠSport": 5713,
      "Ġbon": 5714,
      "Ġarea": 5715,
      "lesc": 5716,
      "PER": 5717,
      "Ġaccessi": 5718,
      "Ġ2006": 5719,
      "Ġcancella": 5720,
      "ĠAi": 5721,
      "Abbiamo": 5722,
      "Ġbenefici": 5723,
      "Ġpratiche": 5724,
      "Ġabitanti": 5725,
      "âĢĻ,": 5726,
      "ĠParigi": 5727,
      "Ġrelativa": 5728,
      "rini": 5729,
      "Ã¡": 5730,
      "Ġrischia": 5731,
      "Ġsuperare": 5732,
      "Ġcoscienza": 5733,
      "Ġcalo": 5734,
      "Ġsilenzio": 5735,
      "Ġmorti": 5736,
      "Ġconsapevolezza": 5737,
      "Ġattivi": 5738,
      "Ġprevenzione": 5739,
      "Ġoper": 5740,
      "Ġacque": 5741,
      "Ġarchi": 5742,
      "Ġscoperto": 5743,
      "Ġcomprende": 5744,
      "ĠWil": 5745,
      "Ġcurio": 5746,
      "Ġaccer": 5747,
      "ĠSO": 5748,
      "orsa": 5749,
      "ĠTeatro": 5750,
      "Ġindietro": 5751,
      "Ġentusia": 5752,
      "Ġpreval": 5753,
      "Ġconseguenze": 5754,
      "Ġcane": 5755,
      "Ġinformazione": 5756,
      "100": 5757,
      "ganismo": 5758,
      "gger": 5759,
      "Ġono": 5760,
      "Ġsuccessivamente": 5761,
      "uol": 5762,
      "impe": 5763,
      "ĠCosti": 5764,
      "Ġattivo": 5765,
      "Ġmercati": 5766,
      "Ġpercen": 5767,
      "Ġspre": 5768,
      "Ġdecidere": 5769,
      "Ġigno": 5770,
      "Ġmail": 5771,
      "Ġsacri": 5772,
      "cel": 5773,
      "Ġaccessori": 5774,
      "Ġcontinui": 5775,
      "Ġrichiesto": 5776,
      "ĠRoberto": 5777,
      "Ġallar": 5778,
      "Ġnaturalmente": 5779,
      "Ġvalutare": 5780,
      "Ġesattamente": 5781,
      "ĠFra": 5782,
      "Ġpianta": 5783,
      "Ġclub": 5784,
      "ĠLondra": 5785,
      "Ġcontrollare": 5786,
      "Ġimmagine": 5787,
      "Ġindicazioni": 5788,
      "ttito": 5789,
      "ĠRai": 5790,
      "utore": 5791,
      "vocato": 5792,
      "Ġsuperiori": 5793,
      "Ġcause": 5794,
      "Ġlievi": 5795,
      "bur": 5796,
      "Ġstorica": 5797,
      "Ġsensazione": 5798,
      "Ġazz": 5799,
      "Ġfasi": 5800,
      "Ġinqu": 5801,
      "zon": 5802,
      "Ġocci": 5803,
      "rle": 5804,
      "Ġprogettazione": 5805,
      "Ġindicato": 5806,
      "Ġdando": 5807,
      "orld": 5808,
      "Ġpesce": 5809,
      "ost": 5810,
      "ttempo": 5811,
      "ziato": 5812,
      "Istituto": 5813,
      "abi": 5814,
      "Ġcontinuo": 5815,
      "ĠBr": 5816,
      "Ġgeo": 5817,
      "Ġalimentare": 5818,
      "%.": 5819,
      "Ġaltret": 5820,
      "Ġricerche": 5821,
      "VE": 5822,
      "Ġcalda": 5823,
      "Ġopzioni": 5824,
      "Ġcambiamenti": 5825,
      "Ġquotidiano": 5826,
      "equi": 5827,
      "Ġfamoso": 5828,
      "ĠfinalitÃł": 5829,
      "sono": 5830,
      "Ġaggi": 5831,
      "Ra": 5832,
      "Ġnormativa": 5833,
      "Siamo": 5834,
      "Ġpreparare": 5835,
      "lui": 5836,
      "effetto": 5837,
      "tile": 5838,
      "Ġraccontare": 5839,
      "Ġapre": 5840,
      "Ġvecchia": 5841,
      "Ġchiuso": 5842,
      "Ġchiunque": 5843,
      "Ġproto": 5844,
      "Ġspiegato": 5845,
      "Ġincen": 5846,
      "Ġque": 5847,
      "33": 5848,
      "Ġfatica": 5849,
      "ĠMatteo": 5850,
      "Ġsimpa": 5851,
      "Ġvenga": 5852,
      "ĠSE": 5853,
      "Ġscaricare": 5854,
      "Ġpacche": 5855,
      "Ġfrattempo": 5856,
      "Ġprevista": 5857,
      "UR": 5858,
      "cesi": 5859,
      "ĠBel": 5860,
      "Ġsoggiorno": 5861,
      "Ġlaboratorio": 5862,
      "Ġsentenza": 5863,
      "estione": 5864,
      "Ġlegisla": 5865,
      "ĠPalermo": 5866,
      "Ġmovimenti": 5867,
      "Ġtagli": 5868,
      "vatore": 5869,
      "Ġosta": 5870,
      "Ġmedie": 5871,
      "Ġorienta": 5872,
      "Ġmetodi": 5873,
      "Ġmanutenzione": 5874,
      "rabinieri": 5875,
      "ltÃł": 5876,
      "importanza": 5877,
      "tedÃ¬": 5878,
      "Ġvolete": 5879,
      "The": 5880,
      "entro": 5881,
      "29": 5882,
      "Ġoccup": 5883,
      "ĠvarietÃł": 5884,
      "ĠDA": 5885,
      "Ġerrori": 5886,
      "eroporto": 5887,
      "frica": 5888,
      "erebbe": 5889,
      "ĠGrande": 5890,
      "ĠTur": 5891,
      "ĠItaliana": 5892,
      "apertura": 5893,
      "dar": 5894,
      "ALE": 5895,
      "Ġproi": 5896,
      "TTO": 5897,
      "uscita": 5898,
      "ologia": 5899,
      "Ġdimostrato": 5900,
      "Ġtaglio": 5901,
      "ĠLuigi": 5902,
      "Ġsocc": 5903,
      "Ġsocio": 5904,
      "Ġmilitari": 5905,
      "Ġ45": 5906,
      "Ġdesid": 5907,
      "Ġfotografia": 5908,
      "Ġfamiliari": 5909,
      "Ġpotrai": 5910,
      "ĠMaggio": 5911,
      "Ġimportanza": 5912,
      "Ġesterno": 5913,
      "Ġprevisti": 5914,
      "Ġpraticamente": 5915,
      "Ġsingoli": 5916,
      "Ġfreddo": 5917,
      "Ġspagno": 5918,
      "don": 5919,
      "Ġevol": 5920,
      "indirizzo": 5921,
      "Ġpronti": 5922,
      "ĠAlessandro": 5923,
      "Ġcoraggio": 5924,
      "Ġstazione": 5925,
      "ys": 5926,
      "gramma": 5927,
      "Ġbuono": 5928,
      "Ġelezioni": 5929,
      "Ġfili": 5930,
      "Ġmissione": 5931,
      "Ġinfluenza": 5932,
      "Ġcopia": 5933,
      "Ġregista": 5934,
      "Ġaccanto": 5935,
      "Ġza": 5936,
      "Ġtrasfor": 5937,
      "CON": 5938,
      "Ġneo": 5939,
      "Ġpersino": 5940,
      "ĠAssi": 5941,
      "geni": 5942,
      "Ġcompetenza": 5943,
      "riere": 5944,
      "Ġcalore": 5945,
      "zialmente": 5946,
      "della": 5947,
      "Ġimper": 5948,
      "Ġ300": 5949,
      "Ġprodurre": 5950,
      "gori": 5951,
      "load": 5952,
      "chino": 5953,
      "Ġindustriale": 5954,
      "Ġeduca": 5955,
      "DU": 5956,
      "Ġeccessi": 5957,
      "Ġridu": 5958,
      "Ġsottoscri": 5959,
      "Ġavrebbero": 5960,
      "Ġrinuncia": 5961,
      "Ġindispensa": 5962,
      "Ġparlando": 5963,
      "Ġretro": 5964,
      "Ġelettronica": 5965,
      "Ġsanno": 5966,
      "ĠSpagna": 5967,
      "ĠTren": 5968,
      "ĠUSA": 5969,
      "Ġriscal": 5970,
      "ĠEuropea": 5971,
      "Ġprepara": 5972,
      "enato": 5973,
      "ĠFA": 5974,
      "bus": 5975,
      "lastname": 5976,
      "Ġfianco": 5977,
      "ccando": 5978,
      "Ġmeccani": 5979,
      "esistenza": 5980,
      "industria": 5981,
      "Ġminori": 5982,
      "........": 5983,
      "dori": 5984,
      "ĠGri": 5985,
      "Ġsvolge": 5986,
      "Ġpranzo": 5987,
      "Ġsecondi": 5988,
      "ĠRA": 5989,
      "Ġtop": 5990,
      "pole": 5991,
      "aspetto": 5992,
      "Ġlava": 5993,
      "Ġmatura": 5994,
      "Ġserver": 5995,
      "atta": 5996,
      "cs": 5997,
      "Ġuova": 5998,
      "Ġriuscito": 5999,
      "Ġgiallo": 6000,
      "tili": 6001,
      "Ġgratuita": 6002,
      "Ġus": 6003,
      "Ġterapia": 6004,
      "Ġpasti": 6005,
      "Ġpubbliche": 6006,
      "Ġprio": 6007,
      "Ġaziendale": 6008,
      "tes": 6009,
      "ĠâĢĶ": 6010,
      "Ġvoci": 6011,
      "vviamente": 6012,
      "Ġtentativo": 6013,
      "incen": 6014,
      "ĠBlu": 6015,
      "ĠpersonalitÃł": 6016,
      "Ġtransi": 6017,
      "Ġrappresentano": 6018,
      "Ġtrasmissione": 6019,
      "peri": 6020,
      "Ġatle": 6021,
      "manti": 6022,
      "Ġvuol": 6023,
      "dete": 6024,
      "bole": 6025,
      "Ġscala": 6026,
      "isci": 6027,
      "Ġlettori": 6028,
      "Ġpenso": 6029,
      "ĠpubblicitÃł": 6030,
      "Ġprovato": 6031,
      "Ġdefinire": 6032,
      "Ġmodulo": 6033,
      "tenze": 6034,
      "Ġtotalmente": 6035,
      "Ġpato": 6036,
      "dal": 6037,
      "ĠRussia": 6038,
      "nale": 6039,
      "PP": 6040,
      "Ġstress": 6041,
      "Ġresponsabili": 6042,
      "Ġlancia": 6043,
      "Ġrequisiti": 6044,
      "Ġmilitare": 6045,
      "ĠNoi": 6046,
      "Ġvetro": 6047,
      "Ġrecenti": 6048,
      "ĠEli": 6049,
      "UO": 6050,
      "monte": 6051,
      "Ġcanale": 6052,
      "Ġcolazione": 6053,
      "Ġimprovvi": 6054,
      "Ġquartiere": 6055,
      "Ġconclusione": 6056,
      "Ġscritta": 6057,
      "Ġattuali": 6058,
      "Ġchilometri": 6059,
      "ĠMusi": 6060,
      "ppie": 6061,
      "ans": 6062,
      "Au": 6063,
      "identi": 6064,
      "Ġcategorie": 6065,
      "Ġdona": 6066,
      "Ġverdu": 6067,
      "Bu": 6068,
      "Ġinna": 6069,
      "PerchÃ©": 6070,
      "SE": 6071,
      "Par": 6072,
      "Ġmura": 6073,
      "Ġrifu": 6074,
      "Ġ150": 6075,
      "Ġdigitali": 6076,
      "Ġaltrimenti": 6077,
      "Ġdialogo": 6078,
      "ĠScuola": 6079,
      "Ġnuovamente": 6080,
      "Ġspedizione": 6081,
      "ĠParti": 6082,
      "pposizione": 6083,
      "nare": 6084,
      "je": 6085,
      "Ġsostan": 6086,
      "ĠMac": 6087,
      "ĠlocalitÃł": 6088,
      "Ġreti": 6089,
      "ĠOli": 6090,
      "sivi": 6091,
      "Alla": 6092,
      "Ġregioni": 6093,
      "Ġfamiliare": 6094,
      "Ġappa": 6095,
      "attuale": 6096,
      "Ġossia": 6097,
      "Ġsentito": 6098,
      "Ġterrori": 6099,
      "ted": 6100,
      "Ġdoppio": 6101,
      "Ġedifici": 6102,
      "All": 6103,
      "Ġsappiamo": 6104,
      "Ġgenti": 6105,
      "ĠEle": 6106,
      "interesse": 6107,
      "tarsi": 6108,
      "Ġmessi": 6109,
      "Ġburro": 6110,
      "ĠBal": 6111,
      "inamento": 6112,
      "MP": 6113,
      "ppon": 6114,
      "ĠCia": 6115,
      "Ġsore": 6116,
      "artista": 6117,
      "Ġdenomina": 6118,
      "Ġcapp": 6119,
      "Ġpasto": 6120,
      "Ġdisegno": 6121,
      "GGI": 6122,
      "teo": 6123,
      "Ġrefer": 6124,
      "Ġsvolto": 6125,
      "ĠSy": 6126,
      "ĠGol": 6127,
      "Ġterzi": 6128,
      "Ġmagistra": 6129,
      "Ġprocedure": 6130,
      "Ġrendono": 6131,
      "Ġrelativo": 6132,
      "Ġpresi": 6133,
      "Tutti": 6134,
      "Ġrealizzati": 6135,
      "ediamo": 6136,
      "Ġricorso": 6137,
      "Ġpsico": 6138,
      "word": 6139,
      "Ġoperativo": 6140,
      "ĠColo": 6141,
      "stino": 6142,
      "endario": 6143,
      "Ġspecifici": 6144,
      "Ġscheda": 6145,
      "zionamento": 6146,
      "Ġpartecipato": 6147,
      "Ġavvicina": 6148,
      "venuto": 6149,
      "rino": 6150,
      "blo": 6151,
      "Ġcommento": 6152,
      "Ġsinc": 6153,
      "bia": 6154,
      "cialmente": 6155,
      "Ġinteressati": 6156,
      "siste": 6157,
      "Ġcioccolato": 6158,
      "Ġband": 6159,
      "Ġgradi": 6160,
      "Ġfacciamo": 6161,
      "Ġcorretta": 6162,
      "coltura": 6163,
      "Ġfiscale": 6164,
      "Ġperformance": 6165,
      "ĠBru": 6166,
      "Ġarrivo": 6167,
      "Ġprincipalmente": 6168,
      "Ġalimenti": 6169,
      "Ġalbum": 6170,
      "Ġavesse": 6171,
      "Ġnews": 6172,
      "Ġprescri": 6173,
      "48": 6174,
      "Ġsoddisfare": 6175,
      "Ġdicono": 6176,
      "Ġcellule": 6177,
      "zionare": 6178,
      "logici": 6179,
      "ganti": 6180,
      "toritÃł": 6181,
      "Ġtavola": 6182,
      "ĠParco": 6183,
      "ĠRE": 6184,
      "ux": 6185,
      "Ġchiari": 6186,
      "Ġadatto": 6187,
      "ticamente": 6188,
      "Ġcaro": 6189,
      "Ġstraordinaria": 6190,
      "Ġvissuto": 6191,
      "Ġanda": 6192,
      "pla": 6193,
      "Ġriempi": 6194,
      "Ġripe": 6195,
      "impegno": 6196,
      "Ġeconomici": 6197,
      "Inoltre": 6198,
      "Ġimmer": 6199,
      "ĠMari": 6200,
      "ds": 6201,
      "Ġprostata": 6202,
      "Ġlegato": 6203,
      "Ġfla": 6204,
      "remo": 6205,
      "Ġconsoli": 6206,
      "Ġcomi": 6207,
      "Ġprocedere": 6208,
      "Ġcompli": 6209,
      "alb": 6210,
      "gento": 6211,
      "Ġsolamente": 6212,
      "Ġvinto": 6213,
      "Ġtermina": 6214,
      "Ġnot": 6215,
      "unno": 6216,
      "Ġcomprare": 6217,
      "troduzione": 6218,
      "essero": 6219,
      "Ġulteriore": 6220,
      "inata": 6221,
      "mentali": 6222,
      "Ġindivid": 6223,
      "Ġindu": 6224,
      "gersi": 6225,
      "Ġprecisa": 6226,
      "ĠaffinchÃ©": 6227,
      "Ġrealizzata": 6228,
      "Ġrichiedere": 6229,
      "vizzera": 6230,
      "aller": 6231,
      "Ġfece": 6232,
      "mes": 6233,
      "Ġpotente": 6234,
      "Ġmontagna": 6235,
      "Ġscrittura": 6236,
      "deranno": 6237,
      "ĠLei": 6238,
      "Ġeviden": 6239,
      "Ġdanne": 6240,
      "abb": 6241,
      "tensione": 6242,
      "ĠLazio": 6243,
      "pra": 6244,
      "ĠNell": 6245,
      "Ġmiglioramento": 6246,
      "Ġsessuale": 6247,
      "Ġcomm": 6248,
      "lismo": 6249,
      "Ġeliminare": 6250,
      "Ġmotori": 6251,
      "Ġnotare": 6252,
      "blet": 6253,
      "Ġminuto": 6254,
      "gran": 6255,
      "Ġfore": 6256,
      "Ġfum": 6257,
      "ĠPor": 6258,
      "Ġfiume": 6259,
      "Ġmodificare": 6260,
      "Ġtardi": 6261,
      "hat": 6262,
      "Ġamericano": 6263,
      "Ogni": 6264,
      "Prima": 6265,
      "rui": 6266,
      "Ġmoderna": 6267,
      "Ġgiornate": 6268,
      "zano": 6269,
      "Ġinfini": 6270,
      "Ġaci": 6271,
      "Ġelettrica": 6272,
      "Ġconsiste": 6273,
      "Ġcorretto": 6274,
      "Ġuffici": 6275,
      "Ġappo": 6276,
      "Ġannunciato": 6277,
      "camera": 6278,
      "Ġout": 6279,
      "ĠBerlusconi": 6280,
      "Ġdec": 6281,
      "Ġpietra": 6282,
      "Ġvisitatori": 6283,
      "Ġprofondo": 6284,
      "Bi": 6285,
      "mpianto": 6286,
      "ĠCir": 6287,
      "canti": 6288,
      "Ġpremia": 6289,
      "idi": 6290,
      "ies": 6291,
      "ave": 6292,
      "ĠUS": 6293,
      "Ġfirma": 6294,
      "Ġelettorale": 6295,
      "ALI": 6296,
      "ĠMor": 6297,
      "opport": 6298,
      "Ġgenerico": 6299,
      "Ġcolpa": 6300,
      "Ġcontatti": 6301,
      "Ġapproccio": 6302,
      "ĠMis": 6303,
      "Ġriserva": 6304,
      "grafico": 6305,
      "Ġsedi": 6306,
      "Ġsensibili": 6307,
      "Ġsquadre": 6308,
      "Ġallu": 6309,
      "Ġinviare": 6310,
      "Ġinterni": 6311,
      "ĠTru": 6312,
      "Ġriflessione": 6313,
      "Ġrisparmia": 6314,
      "Ġ2005": 6315,
      "Ġiper": 6316,
      "Ġgravidanza": 6317,
      "onici": 6318,
      "Ġinven": 6319,
      "Ġlettore": 6320,
      "utazione": 6321,
      "Ġauten": 6322,
      "Ġnarra": 6323,
      "Ġesterni": 6324,
      "ĠBanca": 6325,
      "Ġosserva": 6326,
      "Ġpianeta": 6327,
      "Ġcentinaia": 6328,
      "gram": 6329,
      "ship": 6330,
      "arta": 6331,
      "Te": 6332,
      "ttuale": 6333,
      "Ġgambe": 6334,
      "Ġprimavera": 6335,
      "Ġslo": 6336,
      "ĠParlamento": 6337,
      "cchiere": 6338,
      "ĠDurante": 6339,
      "Ġpartite": 6340,
      "Ġmul": 6341,
      "obbli": 6342,
      "Ġmacchine": 6343,
      "Ġavver": 6344,
      "Ġscarpe": 6345,
      "bin": 6346,
      "ttrice": 6347,
      "Ġsigno": 6348,
      "ĠiPhone": 6349,
      "aiuto": 6350,
      "Ġrinnova": 6351,
      "Ġdico": 6352,
      "Ġgiornalista": 6353,
      "Ġascoltare": 6354,
      "Ġmodifiche": 6355,
      "Ġalternativa": 6356,
      "Ġtiro": 6357,
      "ĠMana": 6358,
      "Ġraccomanda": 6359,
      "Ġcammino": 6360,
      "ĠLoren": 6361,
      "Ġfattura": 6362,
      "Ġesser": 6363,
      "utile": 6364,
      "Ġdecide": 6365,
      "Ġtrovere": 6366,
      "Ġsorpren": 6367,
      "Ġrisoluzione": 6368,
      "Ġscia": 6369,
      "Ġposizioni": 6370,
      "Ġquarto": 6371,
      "Ġflessi": 6372,
      "erati": 6373,
      "ERE": 6374,
      "Ġscienza": 6375,
      "Ġgioi": 6376,
      "Ġpesca": 6377,
      "Ġrime": 6378,
      "Ġeffettuato": 6379,
      "Ġart": 6380,
      "Ġappassionati": 6381,
      "Ġconcerto": 6382,
      "Ġfratello": 6383,
      "ĠCittÃł": 6384,
      "Ġrivela": 6385,
      "Ġconnessione": 6386,
      "Ġlasciando": 6387,
      "CC": 6388,
      "Ġsecoli": 6389,
      "guardia": 6390,
      "Ġandato": 6391,
      "Ġbianca": 6392,
      "ĠPiÃ¹": 6393,
      "Ġtanta": 6394,
      "ellino": 6395,
      "Ġavversa": 6396,
      "Ġtari": 6397,
      "Ġconver": 6398,
      "Ġpropor": 6399,
      "iego": 6400,
      "fu": 6401,
      "Ġuniversi": 6402,
      "Ġviaggia": 6403,
      "ola": 6404,
      "Ġbuone": 6405,
      "ĠNatura": 6406,
      "Ġdate": 6407,
      "ĠClub": 6408,
      "Ġmolta": 6409,
      "Ġandata": 6410,
      "cito": 6411,
      "ĠMilan": 6412,
      "Ġstaff": 6413,
      "augu": 6414,
      "ĠMad": 6415,
      "Ġfate": 6416,
      "Ġoriginali": 6417,
      "Ġcellulare": 6418,
      "Ġconferenza": 6419,
      "Ġdelib": 6420,
      "bro": 6421,
      "dizioni": 6422,
      "==": 6423,
      "Ġciascuno": 6424,
      "Ġcani": 6425,
      "Ġfatte": 6426,
      "Ġfinito": 6427,
      "Ġgene": 6428,
      "ĠNess": 6429,
      "mosi": 6430,
      "36": 6431,
      "ĠPol": 6432,
      "Ġapertura": 6433,
      "cic": 6434,
      "ĠYou": 6435,
      "Ġscambio": 6436,
      "Ġutente": 6437,
      "Ġvoler": 6438,
      "Ġvene": 6439,
      "ĠAs": 6440,
      "uli": 6441,
      "Ġstili": 6442,
      "ith": 6443,
      "Ġappren": 6444,
      "archi": 6445,
      "ĠÌģ": 6446,
      "Ġprivacy": 6447,
      "ĠBos": 6448,
      "Ġaudio": 6449,
      "amministrazione": 6450,
      "venza": 6451,
      "Ġdisegna": 6452,
      "Ġgrafica": 6453,
      "gnosi": 6454,
      "Ġdenti": 6455,
      "Ġoffrono": 6456,
      "Ġfascia": 6457,
      "bella": 6458,
      "Ġsente": 6459,
      "Ġfavori": 6460,
      "gegn": 6461,
      "Ġinfra": 6462,
      "Ġsvolgere": 6463,
      "ĠSky": 6464,
      "Ġcontrolli": 6465,
      "cciaio": 6466,
      "At": 6467,
      "Ġessenziale": 6468,
      "onimo": 6469,
      "ĠGiorgio": 6470,
      "Ġpensieri": 6471,
      "ĠProvincia": 6472,
      "ĠMedia": 6473,
      "Ġfratelli": 6474,
      "Ġristruttura": 6475,
      "Ġzero": 6476,
      "Ġoccasioni": 6477,
      "Ġpermettere": 6478,
      "ĠPorto": 6479,
      "nitÃł": 6480,
      "Ġagenti": 6481,
      "ĠFili": 6482,
      "Ġconoscenze": 6483,
      "Ġfornisce": 6484,
      "glianza": 6485,
      "Ġmm": 6486,
      "Ġtitolare": 6487,
      "ĠValle": 6488,
      "Ġbir": 6489,
      "landa": 6490,
      "sal": 6491,
      "Ġ36": 6492,
      "Ġdichiarazione": 6493,
      "88": 6494,
      "pisce": 6495,
      "Ġsuggeri": 6496,
      "ĠClau": 6497,
      "arono": 6498,
      "Ġiniziale": 6499,
      "Ta": 6500,
      "ĠPie": 6501,
      "Ġveniva": 6502,
      "Ġultima": 6503,
      "Ġcompati": 6504,
      "Ġfavorire": 6505,
      "ĠTele": 6506,
      "ontana": 6507,
      "ĠDELLA": 6508,
      "ĠMicrosoft": 6509,
      "lizzate": 6510,
      "Ġaria": 6511,
      "ks": 6512,
      "Ġalber": 6513,
      "Ġconsiderare": 6514,
      "ling": 6515,
      "Oltre": 6516,
      "insegna": 6517,
      "Ġdoppia": 6518,
      "dore": 6519,
      "Ġdefinito": 6520,
      "lun": 6521,
      "Ġeseguire": 6522,
      "ĠMassimo": 6523,
      "pria": 6524,
      "dentale": 6525,
      "Ġesse": 6526,
      "Ġusu": 6527,
      "bli": 6528,
      "Ġtrovi": 6529,
      "Ġincontrare": 6530,
      "ustra": 6531,
      "sis": 6532,
      "gliamento": 6533,
      "Ġrimasto": 6534,
      "Ġsapore": 6535,
      "pon": 6536,
      "Ġdoveva": 6537,
      "Ġminaccia": 6538,
      "Ġpreghi": 6539,
      "Ġsogni": 6540,
      "Ġutilizzata": 6541,
      "Ġshow": 6542,
      "stallazione": 6543,
      "Ġvivono": 6544,
      "uncio": 6545,
      "ĠAg": 6546,
      "âĢ²": 6547,
      "Ġdeterminato": 6548,
      "Ġcanali": 6549,
      "Ġleggermente": 6550,
      "Ġtrov": 6551,
      "simi": 6552,
      "Ġghia": 6553,
      "Ġ195": 6554,
      "ĠpotenzialitÃł": 6555,
      "Ġpartiti": 6556,
      "Ġpiacevole": 6557,
      "cari": 6558,
      "Ġcervello": 6559,
      "Ġvedo": 6560,
      "ĠToscana": 6561,
      "ĠCapo": 6562,
      "Ġcontributi": 6563,
      "ssare": 6564,
      "Ġsalvare": 6565,
      "Ġvacanze": 6566,
      "Ġproduce": 6567,
      "Ġenorme": 6568,
      "Ġprivata": 6569,
      "Ġcanti": 6570,
      "Ġsuggesti": 6571,
      "ĠGenova": 6572,
      "Ġseguendo": 6573,
      "Ġcapaci": 6574,
      "tele": 6575,
      "Ġcomposta": 6576,
      "Ġproposto": 6577,
      "ormente": 6578,
      "Ġconsulenza": 6579,
      "Ġdubbi": 6580,
      "Ġnotevole": 6581,
      "Ġscientifica": 6582,
      "Ġpreviste": 6583,
      "Ġcresci": 6584,
      "Ġassoluto": 6585,
      "Ġfortemente": 6586,
      "dotte": 6587,
      "Ġricette": 6588,
      "laritÃł": 6589,
      "missa": 6590,
      "Ġbotti": 6591,
      "ĠBea": 6592,
      "Ġmaggiormente": 6593,
      "Ġestate": 6594,
      "Ġclassica": 6595,
      "ĠFranco": 6596,
      "ĠperciÃ²": 6597,
      "Ġappli": 6598,
      "Ġfinestra": 6599,
      "Ġpista": 6600,
      "Mol": 6601,
      "Ġcapitali": 6602,
      "Ġpulizia": 6603,
      "quali": 6604,
      "ĠStar": 6605,
      "Ġproduttori": 6606,
      "Ġpone": 6607,
      "Ġsegnale": 6608,
      "Ġgare": 6609,
      "Ġfilosofia": 6610,
      "escovo": 6611,
      "Ġabili": 6612,
      "ness": 6613,
      "pio": 6614,
      "Ġesercizi": 6615,
      "entato": 6616,
      "dinanza": 6617,
      "Ġstrategie": 6618,
      "Ġattua": 6619,
      "ĠAlle": 6620,
      "Ġaccusa": 6621,
      "Ġsfu": 6622,
      "Ġtrovate": 6623,
      "Ġorganizzazioni": 6624,
      "ttimo": 6625,
      "ĠStre": 6626,
      "ĠInforma": 6627,
      "ĠDia": 6628,
      "ony": 6629,
      "ttan": 6630,
      "cili": 6631,
      "Ġdeten": 6632,
      "Ġeconomiche": 6633,
      "Ġintelle": 6634,
      "Ġstorici": 6635,
      "Ġcolleghi": 6636,
      "Ġancor": 6637,
      "TRO": 6638,
      "scino": 6639,
      "Ġraccogliere": 6640,
      "Ġscompar": 6641,
      "Ġconsumatori": 6642,
      "LU": 6643,
      "Ġturismo": 6644,
      "taly": 6645,
      "ecc": 6646,
      "ĠForse": 6647,
      "Du": 6648,
      "blioteca": 6649,
      "innova": 6650,
      "Ġvorrei": 6651,
      "Ġbere": 6652,
      "Ġpiaci": 6653,
      "Ġfrequenza": 6654,
      "Ġrivista": 6655,
      "moto": 6656,
      "Ġfigure": 6657,
      "Ġcopertura": 6658,
      "Ġminore": 6659,
      "Ġvediamo": 6660,
      "Ġdispone": 6661,
      "500": 6662,
      "Ġconven": 6663,
      "Ġdiffon": 6664,
      "ĠNor": 6665,
      "Ġaggiornamento": 6666,
      "cerdo": 6667,
      "cell": 6668,
      "Ġportale": 6669,
      "Ġtrattati": 6670,
      "ĠRenzi": 6671,
      "Ġfinire": 6672,
      "Sp": 6673,
      "Ġgarantisce": 6674,
      "Ġgenerali": 6675,
      "Ġorganizzare": 6676,
      "oli": 6677,
      "Ġregalo": 6678,
      "ĠAuto": 6679,
      "prima": 6680,
      "Ġmorto": 6681,
      "Ġdri": 6682,
      "ĠPlay": 6683,
      "05": 6684,
      "ttate": 6685,
      "Ġdotato": 6686,
      "Ġteoria": 6687,
      "Ġtendenza": 6688,
      "contri": 6689,
      "Ġdigni": 6690,
      "Ġgay": 6691,
      "Ġtipologia": 6692,
      "44": 6693,
      "Ġpredisp": 6694,
      "Ġrigi": 6695,
      "ĠLombar": 6696,
      "Ġlegate": 6697,
      "Ġtif": 6698,
      "ingere": 6699,
      "loro": 6700,
      "Ġgratuitamente": 6701,
      "erano": 6702,
      "ĠGar": 6703,
      "ceo": 6704,
      "ĠComitato": 6705,
      "GA": 6706,
      "Ġlezioni": 6707,
      "Ġmorale": 6708,
      "Ġgiudice": 6709,
      "Ġattraver": 6710,
      "Ġdormi": 6711,
      "gement": 6712,
      "ĠPRE": 6713,
      "Ġcanzone": 6714,
      "Ġcriteri": 6715,
      "collo": 6716,
      "Ġrapidamente": 6717,
      "Ġcrimina": 6718,
      "ĠMentre": 6719,
      "Ġreddito": 6720,
      "ĠCin": 6721,
      "Ġnera": 6722,
      "vente": 6723,
      "Ġarricchi": 6724,
      "ric": 6725,
      "Ġsegni": 6726,
      "zionata": 6727,
      "ĠidentitÃł": 6728,
      "ĠDes": 6729,
      "urtroppo": 6730,
      "ĠQueste": 6731,
      "Ġalcoli": 6732,
      "Ġponte": 6733,
      "ttico": 6734,
      "osamente": 6735,
      "Ġbatteria": 6736,
      "Ġdesideri": 6737,
      "Ġcredere": 6738,
      "Ġyou": 6739,
      "TEN": 6740,
      "Ġfro": 6741,
      "Ġporti": 6742,
      "goro": 6743,
      "Ġton": 6744,
      "pori": 6745,
      "ado": 6746,
      "Ġprivile": 6747,
      "Ġtenuta": 6748,
      "Ġdivertente": 6749,
      "Ġpann": 6750,
      "Ġiscritti": 6751,
      "Ġimpatto": 6752,
      "Ġdott": 6753,
      "Ġcomunicare": 6754,
      "ĠTrib": 6755,
      "tudini": 6756,
      "ĠAli": 6757,
      "Ġdro": 6758,
      "Ġanch": 6759,
      "Ġregistrato": 6760,
      "Ris": 6761,
      "Ġrisparmio": 6762,
      "tene": 6763,
      "ĠMI": 6764,
      "Ġmettendo": 6765,
      "cona": 6766,
      "ĠNove": 6767,
      "Ġcompreso": 6768,
      "logiche": 6769,
      "ministra": 6770,
      "Ġintervista": 6771,
      "Ġdipende": 6772,
      "ĠSocietÃł": 6773,
      "Ġpomo": 6774,
      "tern": 6775,
      "ssegna": 6776,
      "Ġperiodi": 6777,
      "Ġavranno": 6778,
      "esterno": 6779,
      "ĠCalab": 6780,
      "Ġved": 6781,
      "Ġritra": 6782,
      "tologia": 6783,
      "my": 6784,
      "ĠBon": 6785,
      "Ġattori": 6786,
      "Ġdiplo": 6787,
      "gliata": 6788,
      "Ġsomma": 6789,
      "Ġplastica": 6790,
      "01": 6791,
      "informazione": 6792,
      "Ġprenotazione": 6793,
      "faccia": 6794,
      "ĠSinda": 6795,
      "Ġetc": 6796,
      "ĠCultura": 6797,
      "omet": 6798,
      "Ġsegreto": 6799,
      "Ġcapitolo": 6800,
      "Ġriven": 6801,
      "Ġneve": 6802,
      "Ġvecchi": 6803,
      "Ġinsomma": 6804,
      "ĠPadre": 6805,
      "Ġcarb": 6806,
      "Â®": 6807,
      "zzino": 6808,
      "wnload": 6809,
      "Ġcerte": 6810,
      "Ġstai": 6811,
      "ipo": 6812,
      "Ġlavorato": 6813,
      "Ġmembro": 6814,
      "QU": 6815,
      "ĠAnna": 6816,
      "Ġparere": 6817,
      "Ġriguard": 6818,
      "Ġarrivano": 6819,
      "Ġtasso": 6820,
      "ĠAR": 6821,
      "ĠDue": 6822,
      "Ġcass": 6823,
      "ĠgiovedÃ¬": 6824,
      "ĠAS": 6825,
      "cherÃł": 6826,
      "udo": 6827,
      "Ġges": 6828,
      "75": 6829,
      "preso": 6830,
      "ĠFil": 6831,
      "Ġregionali": 6832,
      "occhio": 6833,
      "sma": 6834,
      "ccati": 6835,
      "Ġacu": 6836,
      "Ġdichiara": 6837,
      "Ġappre": 6838,
      "ccupazione": 6839,
      "atmosfera": 6840,
      "Fo": 6841,
      "??": 6842,
      "wi": 6843,
      "teriormente": 6844,
      "Ġcinese": 6845,
      "ruzione": 6846,
      "gionale": 6847,
      "Ġaccount": 6848,
      "Ġturno": 6849,
      "Ġner": 6850,
      "Ġbenefi": 6851,
      "Ġtrasformazione": 6852,
      "mette": 6853,
      "ĠsolidarietÃł": 6854,
      "Ġpassando": 6855,
      "Ġcontratti": 6856,
      "Ġmoderno": 6857,
      "Ġgover": 6858,
      "Ġrivesti": 6859,
      "Ġinteramente": 6860,
      "ĠSol": 6861,
      "getto": 6862,
      "Ġmasch": 6863,
      "desco": 6864,
      "asi": 6865,
      "ĠPD": 6866,
      "Ġfasci": 6867,
      "Ġsorpresa": 6868,
      "Ġweek": 6869,
      "ccante": 6870,
      "her": 6871,
      "ĠMin": 6872,
      "Ġapparen": 6873,
      "rsioni": 6874,
      "ĠTwitter": 6875,
      "stito": 6876,
      "ĠHi": 6877,
      "cabile": 6878,
      "tatore": 6879,
      "Ġdeposi": 6880,
      "Ġber": 6881,
      "ĠValen": 6882,
      "Ġindividuare": 6883,
      "Ġdebito": 6884,
      "Ġorganizzazione": 6885,
      "wo": 6886,
      "For": 6887,
      "49": 6888,
      "arla": 6889,
      "Ġdimenticare": 6890,
      "Ġsospen": 6891,
      "malmente": 6892,
      "Ġ=": 6893,
      "Ġcomunicato": 6894,
      "alli": 6895,
      "atto": 6896,
      "ĠStudi": 6897,
      "Ġintero": 6898,
      "Ġconiu": 6899,
      "opportunitÃł": 6900,
      "Ġtende": 6901,
      "Gio": 6902,
      "Ġripresa": 6903,
      "Ġdiscre": 6904,
      "Ġgradu": 6905,
      "mora": 6906,
      "Ġpalla": 6907,
      "Ġtedesco": 6908,
      "Ġcostituisce": 6909,
      "Ġdivertimento": 6910,
      "03": 6911,
      "Bo": 6912,
      "Ġlaurea": 6913,
      "Ġquestioni": 6914,
      "Ġdebole": 6915,
      "ĠMichele": 6916,
      "Ġsuono": 6917,
      "Ġang": 6918,
      "Ġfred": 6919,
      "%,": 6920,
      "Ġargomenti": 6921,
      "Ġriuscita": 6922,
      "ðŁ": 6923,
      "Ġletteratura": 6924,
      "ufficio": 6925,
      "Ġsupp": 6926,
      "BA": 6927,
      "âĢľ.": 6928,
      "Ġiniziativa": 6929,
      "Ġregolare": 6930,
      "Ġpunte": 6931,
      "Ġarrivati": 6932,
      "versale": 6933,
      "Ġsoddisfazione": 6934,
      "âĢĿ:": 6935,
      "Ġdiffuso": 6936,
      "Ġsv": 6937,
      "ĠPla": 6938,
      "Ġvigore": 6939,
      "Ġfaceva": 6940,
      "Ġbom": 6941,
      "Ġvelocemente": 6942,
      "nero": 6943,
      "Ġsva": 6944,
      "ttata": 6945,
      "ortare": 6946,
      "Ġpanorama": 6947,
      "Imp": 6948,
      "Ġtiene": 6949,
      "Ġdibattito": 6950,
      "gnor": 6951,
      "ĠConf": 6952,
      "ettere": 6953,
      "Ġriconoscere": 6954,
      "Ġpoesia": 6955,
      "ĠRosa": 6956,
      "Ġfirstname": 6957,
      "bert": 6958,
      "Ġsento": 6959,
      "ĠterrÃł": 6960,
      "Ġbev": 6961,
      "Ġricom": 6962,
      "ĠNei": 6963,
      "Ġinaugu": 6964,
      "Ġcambiato": 6965,
      "Ġbassi": 6966,
      "Ġcontrasto": 6967,
      "Ġelegante": 6968,
      "ĠMod": 6969,
      "cciano": 6970,
      "Ġidro": 6971,
      "ward": 6972,
      "Ġtappe": 6973,
      "Ġambientali": 6974,
      "Ġfrase": 6975,
      "Ġentrambe": 6976,
      "angelo": 6977,
      "ĠSenza": 6978,
      "38": 6979,
      "Ġseria": 6980,
      "ĠMc": 6981,
      "impianto": 6982,
      "Ġceri": 6983,
      "Ġresa": 6984,
      "ĠServizio": 6985,
      "Ġabbra": 6986,
      "Ġbraccia": 6987,
      "eta": 6988,
      "ĠCes": 6989,
      "Ġstranieri": 6990,
      "Ġsviluppato": 6991,
      "ĠAmerica": 6992,
      "schi": 6993,
      "raele": 6994,
      "Ġcostruito": 6995,
      "ologico": 6996,
      "tempo": 6997,
      "Ġcomportamenti": 6998,
      "tualitÃł": 6999,
      "Ġanali": 7000,
      "Ġsuddi": 7001,
      "pet": 7002,
      "ĠcreativitÃł": 7003,
      "ĠcuriositÃł": 7004,
      "ach": 7005,
      "Ġstudente": 7006,
      "Ġalimentari": 7007,
      "Ġchiaramente": 7008,
      "ĠSito": 7009,
      "Ġchiudere": 7010,
      "Ġaccettare": 7011,
      "Ġquegli": 7012,
      "Poi": 7013,
      "Ġvasta": 7014,
      "Ġdin": 7015,
      "Ġtablet": 7016,
      "Ġ2004": 7017,
      "ĠAve": 7018,
      "Ġtensione": 7019,
      "Ġlogica": 7020,
      "Ġindagini": 7021,
      "Ġpronta": 7022,
      "terali": 7023,
      "Ġconsentire": 7024,
      "Ġrisponde": 7025,
      "Ġcosi": 7026,
      "Ġminima": 7027,
      "azz": 7028,
      "obbligo": 7029,
      "Ġtipologie": 7030,
      "ĠprofessionalitÃł": 7031,
      "Ġvisite": 7032,
      "Ġlunghi": 7033,
      "ioren": 7034,
      "ĠSiste": 7035,
      "Ġincu": 7036,
      "ĠNON": 7037,
      "Ġpuntata": 7038,
      "Ġerrore": 7039,
      "mino": 7040,
      "Ġscrittore": 7041,
      "Ġscegli": 7042,
      "ĠMO": 7043,
      "anzitutto": 7044,
      "elet": 7045,
      "degna": 7046,
      "Ġingresso": 7047,
      "Ġricordi": 7048,
      "Ġbandi": 7049,
      "cord": 7050,
      "ĠPI": 7051,
      "Ġpiede": 7052,
      "46": 7053,
      "Ġsingle": 7054,
      "Ġditta": 7055,
      "Ġpercentuale": 7056,
      "ĠCalabria": 7057,
      "Ġconflitto": 7058,
      "47": 7059,
      "Ġespon": 7060,
      "Ġcercato": 7061,
      "tron": 7062,
      "Ġpole": 7063,
      "Ġ2003": 7064,
      "06": 7065,
      "Ġovunque": 7066,
      "Ġveloci": 7067,
      "CIA": 7068,
      "Ġara": 7069,
      "Ġtrans": 7070,
      "urata": 7071,
      "Ġpotenziale": 7072,
      "Ġlook": 7073,
      "stante": 7074,
      "archite": 7075,
      "Ġprospettiva": 7076,
      "ĠEsp": 7077,
      "Ġpassati": 7078,
      "Ġderiva": 7079,
      "Ro": 7080,
      "Ġmole": 7081,
      "Ġcattura": 7082,
      "Ġorganizzata": 7083,
      "ĠFri": 7084,
      "top": 7085,
      "tuni": 7086,
      "cus": 7087,
      "Ġalte": 7088,
      "Ġcondivisione": 7089,
      "diali": 7090,
      "acco": 7091,
      "ĠUsa": 7092,
      "Ġfila": 7093,
      "Tutto": 7094,
      "Ġcombattere": 7095,
      "ĠCampi": 7096,
      "ĠDO": 7097,
      "vini": 7098,
      "Ġmonu": 7099,
      "gerÃł": 7100,
      "ticitÃł": 7101,
      "Ġarrivata": 7102,
      "Ġcoer": 7103,
      "lizia": 7104,
      "Ġesterna": 7105,
      "uove": 7106,
      "Ġpesante": 7107,
      "Ġgrassi": 7108,
      "tava": 7109,
      "vamento": 7110,
      "Ġintui": 7111,
      "Ġidone": 7112,
      "Ġvacc": 7113,
      "ĠRegno": 7114,
      "granti": 7115,
      "stazione": 7116,
      "Ġtrattamenti": 7117,
      "Ġesercizio": 7118,
      "Ġamministrazione": 7119,
      "gresso": 7120,
      "Ġup": 7121,
      "ĠNA": 7122,
      "Ġantichi": 7123,
      "Ġincor": 7124,
      "Ġbrevi": 7125,
      "ames": 7126,
      "ENTI": 7127,
      "Ġtutt": 7128,
      "aming": 7129,
      "Nell": 7130,
      "geno": 7131,
      "terapia": 7132,
      "ĠPiano": 7133,
      "Ġmisteri": 7134,
      "rola": 7135,
      "ossa": 7136,
      "ĠFla": 7137,
      "ĠFI": 7138,
      "Ġdifficili": 7139,
      "Ġconsentono": 7140,
      "ĠSho": 7141,
      "Ġclicca": 7142,
      "ĠSant": 7143,
      "Ġriguardano": 7144,
      "ĠSP": 7145,
      "dosso": 7146,
      "sive": 7147,
      "Ġfresco": 7148,
      "Ġcostu": 7149,
      "Ġricercatori": 7150,
      "âĢĻ.": 7151,
      "Ġscarica": 7152,
      "Ġcommissione": 7153,
      "Ha": 7154,
      "gomento": 7155,
      "ĠâĢĿ": 7156,
      "Ġreca": 7157,
      "Ġesprimere": 7158,
      "MS": 7159,
      "ĠArt": 7160,
      "uogo": 7161,
      "ĠUN": 7162,
      "ĠMal": 7163,
      "tuniten": 7164,
      "Mar": 7165,
      "Ġpolvere": 7166,
      "TORI": 7167,
      "Ġguer": 7168,
      "Ġstupi": 7169,
      "Ġgrosso": 7170,
      "Ġagire": 7171,
      "ĠTU": 7172,
      "Ġvoti": 7173,
      "Ġsacerdo": 7174,
      "giano": 7175,
      "andosi": 7176,
      "Ġdemocrazia": 7177,
      "Ġcostituito": 7178,
      "Ġriportato": 7179,
      "Ġespresso": 7180,
      "Ġragi": 7181,
      "PRO": 7182,
      "zzante": 7183,
      "Ġdocumentazione": 7184,
      "ĠPers": 7185,
      "...)": 7186,
      "ĠCap": 7187,
      "Ġsintesi": 7188,
      "fficienti": 7189,
      "Ġcampione": 7190,
      "ney": 7191,
      "orzio": 7192,
      "ĠRego": 7193,
      "Ġperson": 7194,
      "Ġrivoluzione": 7195,
      "Ġcomponente": 7196,
      "Ġdio": 7197,
      "ĠLegge": 7198,
      "Qual": 7199,
      ".\"": 7200,
      "Ġvittima": 7201,
      "ĠandrÃł": 7202,
      "Ġfantasia": 7203,
      "Ġportando": 7204,
      "Ġritmo": 7205,
      "minio": 7206,
      "Ġtrasferimento": 7207,
      "Ġdestinazione": 7208,
      "ttino": 7209,
      "dova": 7210,
      "Ġdecisioni": 7211,
      "Ġfunzion": 7212,
      "Ġveicoli": 7213,
      "Ġsconto": 7214,
      "ĠBol": 7215,
      "Ġmari": 7216,
      "ĠprofonditÃł": 7217,
      "forte": 7218,
      "alleria": 7219,
      "Ġlago": 7220,
      "Ġutilizzate": 7221,
      "ĠSala": 7222,
      "grado": 7223,
      "Ġprecisione": 7224,
      "low": 7225,
      "Ġscorsa": 7226,
      "09": 7227,
      "Ġvul": 7228,
      "Ġporno": 7229,
      "Ġscadenza": 7230,
      "ĠNO": 7231,
      "Ġfarci": 7232,
      "ĠDesi": 7233,
      "Ġsuccessivi": 7234,
      "lievi": 7235,
      "Ġgon": 7236,
      "Ġspirituale": 7237,
      "ĠCI": 7238,
      "Ġtessuti": 7239,
      "ĠLeon": 7240,
      "Ġlegata": 7241,
      "Ġ32": 7242,
      "Ġaro": 7243,
      "Ġposse": 7244,
      "Ġcongi": 7245,
      "Ġfrutti": 7246,
      "Ġcostantemente": 7247,
      "Ġcancro": 7248,
      "ccata": 7249,
      "Ġbellissima": 7250,
      "Ġportano": 7251,
      "letta": 7252,
      "Ġcominciare": 7253,
      "Ġautomaticamente": 7254,
      "Ġconclude": 7255,
      "Ġtreno": 7256,
      "terne": 7257,
      "Ġufficio": 7258,
      "Ġaggre": 7259,
      "Ġdisposizioni": 7260,
      "Â©": 7261,
      "Ġvuoto": 7262,
      "parto": 7263,
      "Ġrestare": 7264,
      "Ġcaratteristica": 7265,
      "ĠPier": 7266,
      "Ġfinanziaria": 7267,
      "cune": 7268,
      "giorno": 7269,
      "derci": 7270,
      "tanni": 7271,
      "coni": 7272,
      "Ġtappa": 7273,
      "Ġsuccessiva": 7274,
      "Ġprovvedimento": 7275,
      "ĠSha": 7276,
      "ĠEntra": 7277,
      "tania": 7278,
      "ĠLorenzo": 7279,
      "Ġconsegui": 7280,
      "Ġscolastico": 7281,
      "Ġdefinitiva": 7282,
      "ziamento": 7283,
      "ĠVideo": 7284,
      "Ġregolamento": 7285,
      "rena": 7286,
      "esercizio": 7287,
      "neo": 7288,
      "Ġdocenti": 7289,
      "Ġinso": 7290,
      "Ġforum": 7291,
      "Ġsostiene": 7292,
      "erai": 7293,
      "Ġmaschile": 7294,
      "Ġservono": 7295,
      "ettando": 7296,
      "Ġstamp": 7297,
      "Ġcollegamento": 7298,
      "rt": 7299,
      "Ġmoltep": 7300,
      "Ġrendendo": 7301,
      "poni": 7302,
      "Ġmaga": 7303,
      "Ġlancio": 7304,
      "Ġtriste": 7305,
      "Ġcircolazione": 7306,
      "ĠSarÃł": 7307,
      "Ġimpos": 7308,
      "Ġdedicati": 7309,
      "Ġcivili": 7310,
      "Ġrecuperare": 7311,
      "Ġacquisti": 7312,
      "ĠAcqu": 7313,
      "Ġipotesi": 7314,
      "Ġstatuniten": 7315,
      "INA": 7316,
      "Ġsemina": 7317,
      "Ġportati": 7318,
      "Ġfestival": 7319,
      "ĠContro": 7320,
      "Ġrealmente": 7321,
      "Ġglu": 7322,
      "Ġvite": 7323,
      "ĠSA": 7324,
      "Ġavrei": 7325,
      "ĠPO": 7326,
      "Ġartistico": 7327,
      "py": 7328,
      "ducazione": 7329,
      "Ġulteriormente": 7330,
      "ccade": 7331,
      "Ġkg": 7332,
      "Ġdestino": 7333,
      "04": 7334,
      "ĠSicu": 7335,
      "ĠHar": 7336,
      "Col": 7337,
      "Ġaccumu": 7338,
      "Ġ400": 7339,
      "Ġcassa": 7340,
      "trale": 7341,
      "Ġfoglie": 7342,
      "posto": 7343,
      "Ġversioni": 7344,
      "2016": 7345,
      "Ġordini": 7346,
      "Via": 7347,
      "Ġproporre": 7348,
      "sibile": 7349,
      "Ġorigini": 7350,
      "enico": 7351,
      "Ġcolpito": 7352,
      "destra": 7353,
      "ate": 7354,
      "fil": 7355,
      "nice": 7356,
      "Ġabbond": 7357,
      "Ġfinanziamento": 7358,
      "tinera": 7359,
      "smi": 7360,
      "Ġfamosi": 7361,
      "tativo": 7362,
      "nio": 7363,
      "Ġfamosa": 7364,
      "Ġproprietario": 7365,
      "ĠInsomma": 7366,
      "Ġraccolti": 7367,
      "Ġsostenibile": 7368,
      "divi": 7369,
      "Ġturisti": 7370,
      "Ġder": 7371,
      "Ġmusici": 7372,
      "FA": 7373,
      "Ġcanzoni": 7374,
      "Ġfrequenta": 7375,
      "Ġprogrammazione": 7376,
      "edizione": 7377,
      "Ġpiscina": 7378,
      "Ġdifferenze": 7379,
      "loud": 7380,
      "mbiente": 7381,
      "Ġmuseo": 7382,
      "Ġcinemato": 7383,
      "Ġchiara": 7384,
      "Ġprocura": 7385,
      "installazione": 7386,
      "Ġlati": 7387,
      "Ġscopri": 7388,
      "Ġneppure": 7389,
      "Ġelevato": 7390,
      "berg": 7391,
      "ars": 7392,
      "umanitÃł": 7393,
      "Ġparro": 7394,
      "ccar": 7395,
      "32": 7396,
      "Ġbril": 7397,
      "Ġinfor": 7398,
      "Ġesibi": 7399,
      "onate": 7400,
      "gliate": 7401,
      "Ġaspi": 7402,
      "viene": 7403,
      "ĠNicola": 7404,
      "ban": 7405,
      "07": 7406,
      "Ġformula": 7407,
      "TRI": 7408,
      "Ġspo": 7409,
      "Ġpaesaggio": 7410,
      "doro": 7411,
      "ZZA": 7412,
      "Ġselva": 7413,
      "vis": 7414,
      "ttorio": 7415,
      "ĠAmazon": 7416,
      "cker": 7417,
      "ĠMil": 7418,
      "Ġconve": 7419,
      "Ġepisodi": 7420,
      "colari": 7421,
      "dget": 7422,
      "Ġracconti": 7423,
      "cÃ²": 7424,
      "rich": 7425,
      "08": 7426,
      "sser": 7427,
      "uch": 7428,
      "ĠAb": 7429,
      "Ġpreferito": 7430,
      "Ġfornito": 7431,
      "Ġcondotta": 7432,
      "Ġspontan": 7433,
      "Ġ2001": 7434,
      "Ġdichiarazioni": 7435,
      "ÃŃ": 7436,
      "2017": 7437,
      "37": 7438,
      "vviso": 7439,
      "Ġvicina": 7440,
      "ĠmobilitÃł": 7441,
      "Ġamericana": 7442,
      "Ġarro": 7443,
      "scu": 7444,
      "Ġavvenuto": 7445,
      "altezza": 7446,
      "como": 7447,
      "esame": 7448,
      "Ġeuropee": 7449,
      "Ġchitar": 7450,
      "Ġsuccede": 7451,
      "Ġmandato": 7452,
      "Ġequilibrio": 7453,
      "Ġattacchi": 7454,
      "yer": 7455,
      "Ġconveni": 7456,
      "Ġaltrettanto": 7457,
      "Ġlenta": 7458,
      "uiti": 7459,
      "Ġpareti": 7460,
      "Ġtesi": 7461,
      "veranno": 7462,
      "Ġger": 7463,
      "Ġpresentano": 7464,
      "ggiate": 7465,
      "intervista": 7466,
      "Ġsentimenti": 7467,
      "Ġdetermin": 7468,
      "sogna": 7469,
      "ANI": 7470,
      "Ġmaterie": 7471,
      "Ġmattino": 7472,
      "cello": 7473,
      "Ġsconosci": 7474,
      "Ġassenza": 7475,
      "Ġeffettivamente": 7476,
      "espon": 7477,
      "Ġmix": 7478,
      "MB": 7479,
      "Ġlunghezza": 7480,
      "ĠBari": 7481,
      "ĠGI": 7482,
      "Durante": 7483,
      "utati": 7484,
      "telo": 7485,
      "ĠmartedÃ¬": 7486,
      "Ġarche": 7487,
      "Ġmanifestazioni": 7488,
      "Ġcere": 7489,
      "entare": 7490,
      "Ġrecentemente": 7491,
      "].": 7492,
      "Ġsugger": 7493,
      "ĠScri": 7494,
      "Ġpalazzo": 7495,
      "Ġusando": 7496,
      "Ġpulsante": 7497,
      "chiesta": 7498,
      "edendo": 7499,
      "Ġufficiali": 7500,
      "ĠLI": 7501,
      "Ġsacco": 7502,
      "Ġimpianto": 7503,
      "Ġstraordinario": 7504,
      "ĠCodice": 7505,
      "Ġadolesc": 7506,
      "Ġdefinis": 7507,
      "Ġcomposizione": 7508,
      "estri": 7509,
      "leggio": 7510,
      "Ġrecensioni": 7511,
      "mbu": 7512,
      "Ġagevo": 7513,
      "Ġassumere": 7514,
      "ansione": 7515,
      "Ġriservata": 7516,
      "Ġassegna": 7517,
      "Servi": 7518,
      "Ġantico": 7519,
      "Ġgesto": 7520,
      "unici": 7521,
      "Ġmuro": 7522,
      "istico": 7523,
      "Ġaspettare": 7524,
      "Ġriescono": 7525,
      "ĠCrea": 7526,
      "Ġinevi": 7527,
      "Ġlavorazione": 7528,
      "Ġgenerazioni": 7529,
      "Ġrappresentanti": 7530,
      "Ġeco": 7531,
      "TTA": 7532,
      "Ġcreando": 7533,
      "ĠGala": 7534,
      "Ġimprenditori": 7535,
      "eva": 7536,
      "Ġpronuncia": 7537,
      "Ġdovere": 7538,
      "ĠAir": 7539,
      "Ġesempi": 7540,
      "Ġdecine": 7541,
      "ditore": 7542,
      "Ġassoluta": 7543,
      "verai": 7544,
      "Ġbattu": 7545,
      "Me": 7546,
      "ĠWa": 7547,
      "Ġsportivo": 7548,
      "ĠMauri": 7549,
      "rescia": 7550,
      "Ġdiventata": 7551,
      "Ġprofessionista": 7552,
      "ĠLombardia": 7553,
      "imm": 7554,
      "Ġveicolo": 7555,
      "ĠSerie": 7556,
      "Ġvolontari": 7557,
      "prile": 7558,
      "'s": 7559,
      "Ġdisturbi": 7560,
      "ĠNu": 7561,
      "Ġvicini": 7562,
      "Ġagen": 7563,
      "Ġgiornalisti": 7564,
      "Ġsomministra": 7565,
      "Ġconservazione": 7566,
      "Ġesame": 7567,
      "ult": 7568,
      "ĠGiappone": 7569,
      "ĠServizi": 7570,
      "Ġy": 7571,
      "Fonte": 7572,
      "Ġinterven": 7573,
      "Ġcrede": 7574,
      "Ġsonno": 7575,
      "gliano": 7576,
      "Ġreligione": 7577,
      "tamenti": 7578,
      "Ġabba": 7579,
      "dge": 7580,
      "ĠOpera": 7581,
      "goglio": 7582,
      "Ġfasti": 7583,
      "Ġsforzo": 7584,
      "ĠPra": 7585,
      "SP": 7586,
      "Ġmappa": 7587,
      "Ġcara": 7588,
      "UE": 7589,
      "Ġran": 7590,
      "Ġgiudizia": 7591,
      "Ġristoranti": 7592,
      "Ġaziendali": 7593,
      "Ġpreghiera": 7594,
      "lette": 7595,
      "Ġamericani": 7596,
      "moro": 7597,
      "gire": 7598,
      "BB": 7599,
      "Ġsottolinea": 7600,
      "alizzazione": 7601,
      "Sul": 7602,
      "Ġcoi": 7603,
      "Ġpon": 7604,
      "ciata": 7605,
      "31": 7606,
      "Quindi": 7607,
      "Ġdiventano": 7608,
      "Ġtorta": 7609,
      "vest": 7610,
      "Ġbrano": 7611,
      "Ġanziani": 7612,
      "Ġindispensabile": 7613,
      "Ġvoleva": 7614,
      "Ġblocco": 7615,
      "corso": 7616,
      "enz": 7617,
      "Ġreazione": 7618,
      "ens": 7619,
      "Ġcalendario": 7620,
      "Ġproteggere": 7621,
      "Ġstudiare": 7622,
      "mella": 7623,
      "giudi": 7624,
      "Ġscal": 7625,
      "02": 7626,
      "ĠÂ»": 7627,
      "Ġferma": 7628,
      "ey": 7629,
      "illu": 7630,
      "Ġsostitu": 7631,
      "Ġrappresentare": 7632,
      "Ġdicendo": 7633,
      "Ġapplicare": 7634,
      "Ġconcluso": 7635,
      "gliamo": 7636,
      "Ġavvol": 7637,
      "TM": 7638,
      "Ġlegame": 7639,
      "ĠXVI": 7640,
      "Ġtrattare": 7641,
      "ĠGenerale": 7642,
      "Ġespressione": 7643,
      "Ġenergetico": 7644,
      "ĠVir": 7645,
      "Ġaffascin": 7646,
      "ĠPremio": 7647,
      "Ġdanza": 7648,
      "ĠProte": 7649,
      "Ġspecialmente": 7650,
      "Ġparcheggio": 7651,
      "Ġlimone": 7652,
      "ĠDavid": 7653,
      "ustria": 7654,
      "Ġpassegg": 7655,
      "Ġspiegare": 7656,
      "Ġintervenire": 7657,
      "Ġattacco": 7658,
      "Qui": 7659,
      "ĠSardegna": 7660,
      "Ġtasti": 7661,
      "Ġsegretario": 7662,
      "evoluzione": 7663,
      "ĠmercoledÃ¬": 7664,
      "ĠsensibilitÃł": 7665,
      "Ġinteressato": 7666,
      "Ġarma": 7667,
      "INI": 7668,
      "origine": 7669,
      "Ġantica": 7670,
      "Ġaumenta": 7671,
      "bel": 7672,
      "Ġbisogni": 7673,
      "ĠFre": 7674,
      "Ġtestimonianza": 7675,
      "Ġprosegue": 7676,
      "letti": 7677,
      "Ġsinte": 7678,
      "ziano": 7679,
      "Ġessenziali": 7680,
      "Ġante": 7681,
      "ĠDra": 7682,
      "GO": 7683,
      "Acc": 7684,
      "Ġelettro": 7685,
      "Ġscientifico": 7686,
      "Ġlettere": 7687,
      "Ġsicuri": 7688,
      "celli": 7689,
      "Ġfinisce": 7690,
      "Ġvicin": 7691,
      "oniche": 7692,
      "Ġcelebre": 7693,
      "sy": 7694,
      "partimento": 7695,
      "Ġader": 7696,
      "darsi": 7697,
      "sole": 7698,
      "Ġmentale": 7699,
      "Leggi": 7700,
      "Ġperde": 7701,
      "ĠTale": 7702,
      "zionati": 7703,
      "tite": 7704,
      "Ġpresentata": 7705,
      "Ġelen": 7706,
      "ziosa": 7707,
      "Ġgodere": 7708,
      "Ġâ": 7709,
      "letter": 7710,
      "Ġbellissimo": 7711,
      "Ġmusicali": 7712,
      "Ġapprofondire": 7713,
      "Ġdiabe": 7714,
      "ĠInternazionale": 7715,
      "Ġmaestro": 7716,
      "Ġabiti": 7717,
      "ONI": 7718,
      "lancio": 7719,
      "Ġappuntamenti": 7720,
      "ĠAnn": 7721,
      "Ġrivolto": 7722,
      "ĠSette": 7723,
      "Ġimpresa": 7724,
      "teriori": 7725,
      "Ġbirra": 7726,
      "zziamo": 7727,
      "Ġsfruttare": 7728,
      "ĠInfine": 7729,
      "Art": 7730,
      "importante": 7731,
      "Ġesseri": 7732,
      "inqu": 7733,
      "Ġcomando": 7734,
      "Ġcarcere": 7735,
      "Ver": 7736,
      "Ġtipici": 7737,
      "Ġalberi": 7738,
      "arli": 7739,
      "Ġrestitui": 7740,
      "Ġcanto": 7741,
      "ttente": 7742,
      "ĠMaster": 7743,
      "Ġcoppie": 7744,
      "ottima": 7745,
      "Ġaffermato": 7746,
      "ĠDiri": 7747,
      "Ġtroverete": 7748,
      "mobile": 7749,
      "Ġcolonna": 7750,
      "Ġbrani": 7751,
      "ĠVerona": 7752,
      "argomento": 7753,
      "ning": 7754,
      "ink": 7755,
      "Ġdiso": 7756,
      "tz": 7757,
      "Ġscorre": 7758,
      "vedi": 7759,
      "lor": 7760,
      "Ġliberi": 7761,
      "lterra": 7762,
      "tarlo": 7763,
      "denzi": 7764,
      "',": 7765,
      "Ġtrattato": 7766,
      "ÃĢ": 7767,
      "vita": 7768,
      "ĠIII": 7769,
      "Ġproblematiche": 7770,
      "ml": 7771,
      "Ġpersi": 7772,
      "Ġripi": 7773,
      "Ġaffatto": 7774,
      "Ġstadio": 7775,
      "Ġcaduta": 7776,
      "Ġfinali": 7777,
      "Ġinserito": 7778,
      "Ġfattore": 7779,
      "Ġsaputo": 7780,
      "Ġrivolu": 7781,
      "ĠArti": 7782,
      "Ġsegreti": 7783,
      "Ġassai": 7784,
      "Ġmatch": 7785,
      "ĠOp": 7786,
      "Ġcoinvolti": 7787,
      "Ġproduttore": 7788,
      "ĠRadio": 7789,
      "guono": 7790,
      "duci": 7791,
      "ĠSvizzera": 7792,
      "Ġpalco": 7793,
      "ĠLan": 7794,
      "Ġoperazione": 7795,
      "Ġcontatta": 7796,
      "even": 7797,
      "Ġaiu": 7798,
      "ventus": 7799,
      "Ġconfermato": 7800,
      "Ġsvilupp": 7801,
      "Ġlanciato": 7802,
      "Ġdista": 7803,
      "assessore": 7804,
      "Ġoma": 7805,
      "Ġavvicin": 7806,
      "Ġriscontra": 7807,
      "Ġ2020": 7808,
      "Ġcompresa": 7809,
      "indivi": 7810,
      "Ġtocca": 7811,
      "mendo": 7812,
      "Ġperse": 7813,
      "Ġconfini": 7814,
      "Ġmanuale": 7815,
      "ĠHol": 7816,
      "Ġborsa": 7817,
      "traverso": 7818,
      "Ġtranquilla": 7819,
      "play": 7820,
      "Ġmarchi": 7821,
      "ĠItaliano": 7822,
      "Ġripri": 7823,
      "NE": 7824,
      "Ġbiglietto": 7825,
      "ettata": 7826,
      "Ġfinora": 7827,
      "Ġconsiderata": 7828,
      "Ġcandidato": 7829,
      "Ġsicura": 7830,
      "Ġlavorando": 7831,
      "pping": 7832,
      "aumento": 7833,
      "mona": 7834,
      "identitÃł": 7835,
      "cerca": 7836,
      "ficiale": 7837,
      "cur": 7838,
      "Ġamma": 7839,
      "Ġcomfort": 7840,
      "Ġesemp": 7841,
      "ĠHD": 7842,
      "Ġfelici": 7843,
      "Ġove": 7844,
      "Ġinsegnanti": 7845,
      "Ġ>": 7846,
      "Ġbicicle": 7847,
      "ĠEmilia": 7848,
      "Ġetiche": 7849,
      "mber": 7850,
      "Ġofferto": 7851,
      "RU": 7852,
      "pper": 7853,
      "ĠAlberto": 7854,
      "Ġflusso": 7855,
      "Ġseduta": 7856,
      "euro": 7857,
      "Ġmenu": 7858,
      "Ġlarga": 7859,
      "Ġgeneralmente": 7860,
      "ĠAlcuni": 7861,
      "ĠVeneto": 7862,
      "ĠRicor": 7863,
      "55": 7864,
      "Sta": 7865,
      "ĠWorld": 7866,
      "Ã¼": 7867,
      "ĠdignitÃł": 7868,
      "Ġrec": 7869,
      "Ġradici": 7870,
      "Ġdiagnosi": 7871,
      "Ġridi": 7872,
      "Ġscenario": 7873,
      "Ġvolontaria": 7874,
      "oggi": 7875,
      "Ġvedre": 7876,
      "polo": 7877,
      "Ġvendite": 7878,
      "Ġcompagno": 7879,
      "cosa": 7880,
      "Ġnecessariamente": 7881,
      "Ġdominio": 7882,
      "msung": 7883,
      "Ġconteni": 7884,
      "Sco": 7885,
      "zzini": 7886,
      "Ġcookies": 7887,
      "Ġefficaci": 7888,
      "Ġqualora": 7889,
      "Ġdiffusa": 7890,
      "Ġamanti": 7891,
      "Ġback": 7892,
      "ĠFoto": 7893,
      "ĠTran": 7894,
      "ĠXX": 7895,
      "VER": 7896,
      "ganza": 7897,
      "Ġcontare": 7898,
      "Ġpreciso": 7899,
      "Ġdimostrare": 7900,
      "Ġpala": 7901,
      "quo": 7902,
      "gnos": 7903,
      "Ġmanager": 7904,
      "Ġindividuale": 7905,
      "ennale": 7906,
      "Dom": 7907,
      "risti": 7908,
      "ĠPolizia": 7909,
      "Ġcure": 7910,
      "Ġpensione": 7911,
      "right": 7912,
      "lite": 7913,
      "cciare": 7914,
      "Gu": 7915,
      "ĠVincen": 7916,
      "Ġstretto": 7917,
      "Ġfrui": 7918,
      "Ġopinioni": 7919,
      "Ġvirus": 7920,
      "Ġdecenni": 7921,
      "letto": 7922,
      "Ġbina": 7923,
      "Ġlumin": 7924,
      "aeroporto": 7925,
      "giato": 7926,
      "ĠPorta": 7927,
      "nato": 7928,
      "ggiano": 7929,
      "ĠfelicitÃł": 7930,
      "reria": 7931,
      "Uno": 7932,
      "Ġartistica": 7933,
      "Ġmeccanismo": 7934,
      "ventura": 7935,
      "Ġmonitoraggio": 7936,
      "ettiamo": 7937,
      "Ġserio": 7938,
      "Ġriconosciuto": 7939,
      "ĠRossi": 7940,
      "Ġisola": 7941,
      "Ġtradizioni": 7942,
      "Ġfuga": 7943,
      "landese": 7944,
      "Ġinno": 7945,
      "ĠIni": 7946,
      "ĠInsta": 7947,
      "âĢĺ": 7948,
      "unni": 7949,
      "Ġvendere": 7950,
      "Ġlaboratori": 7951,
      "loni": 7952,
      "Ġ250": 7953,
      "Av": 7954,
      "Ġleggero": 7955,
      "Ġincenti": 7956,
      "?âĢĿ": 7957,
      "CosÃ¬": 7958,
      "Ġtrascor": 7959,
      "ĠpÃ²": 7960,
      "Ġbando": 7961,
      "Agenzia": 7962,
      "pÃł": 7963,
      "Ġlive": 7964,
      "Ġsur": 7965,
      "Ġlingue": 7966,
      "Ġsembrava": 7967,
      "Ġnottur": 7968,
      "ĠPara": 7969,
      "Sal": 7970,
      "Ġrimar": 7971,
      "pponese": 7972,
      "Ġebbe": 7973,
      "Ġosservare": 7974,
      "Ġpresid": 7975,
      "Ġprivate": 7976,
      "Ġsil": 7977,
      "Ġcorrettamente": 7978,
      "Ġbasato": 7979,
      "ici": 7980,
      "pedia": 7981,
      "Ġchiese": 7982,
      "Ġredazione": 7983,
      "Ġmancano": 7984,
      "Ġdovuta": 7985,
      "ĠBlack": 7986,
      "Ġdestinato": 7987,
      "Ġbritanni": 7988,
      "box": 7989,
      "Ġsar": 7990,
      "Ġob": 7991,
      "terraneo": 7992,
      "sson": 7993,
      "Ġmona": 7994,
      "ĠSin": 7995,
      "las": 7996,
      "Ġinnovazione": 7997,
      "Ġapprovato": 7998,
      "Ġaccompagnato": 7999,
      "Ġconserva": 8000,
      "ĠWal": 8001,
      "Ġdebi": 8002,
      "Ġorari": 8003,
      "shop": 8004,
      "ghilterra": 8005,
      "Ġmate": 8006,
      "innovazione": 8007,
      "Ġterape": 8008,
      "Ġwork": 8009,
      "ĠNonostante": 8010,
      "Ġinvestimento": 8011,
      "base": 8012,
      "hanno": 8013,
      "2015": 8014,
      "ensore": 8015,
      "Ġrecord": 8016,
      "ĠVita": 8017,
      "Ġconvo": 8018,
      "ĠMinistro": 8019,
      "Ġindustriali": 8020,
      "ĠLavoro": 8021,
      "Ġcercano": 8022,
      "Ã³": 8023,
      "Ġ^": 8024,
      "Ġriass": 8025,
      "Ġriusciti": 8026,
      "Ġcondotto": 8027,
      "Ġtracce": 8028,
      "ĠQuello": 8029,
      "Ġraggiunge": 8030,
      "ĠMy": 8031,
      "Ġtel": 8032,
      "34": 8033,
      "Ġlezione": 8034,
      "ji": 8035,
      "armi": 8036,
      "ise": 8037,
      "Ġcibi": 8038,
      "Ġangolo": 8039,
      "ĠCorso": 8040,
      "Ġricchi": 8041,
      "inati": 8042,
      "Ġseno": 8043,
      "dr": 8044,
      "Ġsolare": 8045,
      "ttobre": 8046,
      "Ġ;": 8047,
      "tane": 8048,
      "Ġsvolgimento": 8049,
      "95": 8050,
      "Ġcandidati": 8051,
      "Ġraffred": 8052,
      "Ġandando": 8053,
      "Ġclassici": 8054,
      "Ġidra": 8055,
      "tia": 8056,
      "ellini": 8057,
      "Ġpene": 8058,
      "Ġrub": 8059,
      "Ġsorriso": 8060,
      "ĠPres": 8061,
      "ĠStudio": 8062,
      "Ġpoch": 8063,
      "Ġcominciato": 8064,
      "Ġpioggia": 8065,
      "Ġpetro": 8066,
      "Ġorizz": 8067,
      "endosi": 8068,
      "Ġinverna": 8069,
      "Ġamiche": 8070,
      "Ġfidanza": 8071,
      "Ġsottile": 8072,
      "Ġtela": 8073,
      "gamento": 8074,
      "Ġconvinto": 8075,
      "Ġgira": 8076,
      "Ġdocente": 8077,
      "Ġaspettative": 8078,
      "ORMA": 8079,
      "mbro": 8080,
      "Ġind": 8081,
      "inca": 8082,
      "Ġrall": 8083,
      "Ġprofessione": 8084,
      "ĠRIS": 8085,
      "ĠSegre": 8086,
      "ĠSole": 8087,
      "Ġesplici": 8088,
      "Ġcaratterizzato": 8089,
      "ziali": 8090,
      "ezioni": 8091,
      "Ġhard": 8092,
      "ospe": 8093,
      "Ġvalido": 8094,
      "Ġmetropoli": 8095,
      "Ġcera": 8096,
      "Ġcastello": 8097,
      "sen": 8098,
      "desi": 8099,
      "Ġrappresentato": 8100,
      "Ġesclusiva": 8101,
      "gy": 8102,
      "Ġquadri": 8103,
      "Ġfascino": 8104,
      "less": 8105,
      "usei": 8106,
      "vecchia": 8107,
      "Ġusati": 8108,
      "ĠKo": 8109,
      "Ġmostrato": 8110,
      "Ġprestazione": 8111,
      "ĠRO": 8112,
      "ĠabilitÃł": 8113,
      "2014": 8114,
      "strutture": 8115,
      "Ġartigian": 8116,
      "ĠgiÃ¹": 8117,
      "Ġcittadinanza": 8118,
      "ĠstabilitÃł": 8119,
      "Ġvedono": 8120,
      "Tor": 8121,
      "Ġindicare": 8122,
      "Fran": 8123,
      "hai": 8124,
      "Ġvirtuale": 8125,
      "Ġposteriore": 8126,
      "sore": 8127,
      "Ġgeneri": 8128,
      "ĠUniversitÃł": 8129,
      "ĠTribunale": 8130,
      "versario": 8131,
      "Ġimpostazioni": 8132,
      "Ġincro": 8133,
      "Ġcifra": 8134,
      "por": 8135,
      "Ġpersegui": 8136,
      "Ġricchezza": 8137,
      "ĠQuest": 8138,
      "ĠDirettore": 8139,
      "Ġcavallo": 8140,
      "Ġpall": 8141,
      "Ġpover": 8142,
      "PiÃ¹": 8143,
      "ĠðŁ": 8144,
      "ĠSara": 8145,
      "ĠSamsung": 8146,
      "Ġsportiva": 8147,
      "Ġpoveri": 8148,
      "issÃł": 8149,
      "ĠAngel": 8150,
      "Ġmarcia": 8151,
      "Ġparete": 8152,
      "Ġpreparato": 8153,
      "Ġrassegna": 8154,
      "jo": 8155,
      "Ġ!": 8156,
      "ĠUniversi": 8157,
      "Ġml": 8158,
      "core": 8159,
      "Ġrecensione": 8160,
      "Ġgiunta": 8161,
      "Ġrealizzate": 8162,
      "Ġcittadina": 8163,
      "UL": 8164,
      "lire": 8165,
      "Ġenergetica": 8166,
      "Ġferrovia": 8167,
      "Ġdifen": 8168,
      "Ġaccel": 8169,
      "Ġprocedimento": 8170,
      "ĠIsraele": 8171,
      "Ġavventura": 8172,
      "ostro": 8173,
      "Ġcipol": 8174,
      "Ġ38": 8175,
      "Ġsplendida": 8176,
      "Ġabitua": 8177,
      "dum": 8178,
      "Ġbenissimo": 8179,
      "Ġaccaduto": 8180,
      "Ġtrasfer": 8181,
      "ERI": 8182,
      "Ġusufr": 8183,
      "Ġrock": 8184,
      "ulta": 8185,
      "elenco": 8186,
      "Ġbatter": 8187,
      "fisi": 8188,
      "Ġresidenti": 8189,
      "Ġesperto": 8190,
      "gitto": 8191,
      "Ġsalvo": 8192,
      "Ġvisibile": 8193,
      "inale": 8194,
      "Ġritardo": 8195,
      "ĠLea": 8196,
      "Ġdocumen": 8197,
      "Ġdescrizione": 8198,
      "ĠItaly": 8199,
      "Ġbraccio": 8200,
      "Ġaccon": 8201,
      "Ġfinanziari": 8202,
      "Ġdebba": 8203,
      "Ġmostrare": 8204,
      "Ġinvestire": 8205,
      "ĠSto": 8206,
      "Ġrelax": 8207,
      "ĠPan": 8208,
      "ĠFar": 8209,
      "Ġrender": 8210,
      "Ġpopolari": 8211,
      "assistenza": 8212,
      "angolo": 8213,
      "Informa": 8214,
      "Ġmagne": 8215,
      "ĠBan": 8216,
      "Ġfabbrica": 8217,
      "ĠDalla": 8218,
      "Ġcolon": 8219,
      "untamento": 8220,
      "Ġtifosi": 8221,
      "gredienti": 8222,
      "Ġistruzioni": 8223,
      "ĠJe": 8224,
      "ĠGrecia": 8225,
      "Ġautomobili": 8226,
      "Ġallesti": 8227,
      "Ġintenso": 8228,
      "Ġmolteplici": 8229,
      "Ġandre": 8230,
      "Ġfunzionale": 8231,
      "Ġcora": 8232,
      "Ġidentifica": 8233,
      "Ġbas": 8234,
      "Ġministero": 8235,
      "Ġtrama": 8236,
      "Ġanimale": 8237,
      "Ġbonus": 8238,
      "Ġespressa": 8239,
      "ĠvirtÃ¹": 8240,
      "Ġrapida": 8241,
      "nei": 8242,
      "glione": 8243,
      "Ġaperti": 8244,
      "Ġciascun": 8245,
      "Ġcerimonia": 8246,
      "Ġpresu": 8247,
      "rerÃł": 8248,
      "Ġconfine": 8249,
      "Ġschiena": 8250,
      "Cre": 8251,
      "conda": 8252,
      "integrazione": 8253,
      "ggiornamento": 8254,
      "Ġrispettare": 8255,
      "cetta": 8256,
      "Ġtalvolta": 8257,
      "ĠDEI": 8258,
      "fis": 8259,
      "Ġaccen": 8260,
      "Ġpartendo": 8261,
      "Ġparametri": 8262,
      "Ġcore": 8263,
      "Questi": 8264,
      "commer": 8265,
      "Ġconsentito": 8266,
      "ĠFabio": 8267,
      "matici": 8268,
      "Ġcarre": 8269,
      "Ġtipico": 8270,
      "Ġridotto": 8271,
      "issimi": 8272,
      "Ġpacchetto": 8273,
      "Ġlusso": 8274,
      "Ġviolazione": 8275,
      "Ġassume": 8276,
      "Ġcontribuire": 8277,
      "Ġattrezza": 8278,
      "arch": 8279,
      "Ġcomposi": 8280,
      "ERA": 8281,
      "Ġbatte": 8282,
      "Ġcatena": 8283,
      "Ġoffri": 8284,
      "Ġinedi": 8285,
      "ĠOs": 8286,
      "ĠCostituzione": 8287,
      "Ġcertezza": 8288,
      "Ġaltamente": 8289,
      "erito": 8290,
      "teli": 8291,
      "Ġvisualizzare": 8292,
      "Ġargomento": 8293,
      "Ġimmaginare": 8294,
      "ĠMondo": 8295,
      "Ġtrading": 8296,
      "cane": 8297,
      "Ġuscito": 8298,
      "ĠDipartimento": 8299,
      "Ġconsigliere": 8300,
      "ggono": 8301,
      "Ġrivolta": 8302,
      "Ġsolitamente": 8303,
      "ĠPuglia": 8304,
      "osizione": 8305,
      "Ġsingola": 8306,
      "fono": 8307,
      "Ġultra": 8308,
      "Ġvertica": 8309,
      "atch": 8310,
      "Ġster": 8311,
      "Ġtemperature": 8312,
      "mante": 8313,
      "Ġautomatico": 8314,
      "Ġantiche": 8315,
      "Ġduro": 8316,
      "Ġritiene": 8317,
      "viare": 8318,
      "Ġcelebra": 8319,
      "lanza": 8320,
      "Ġwith": 8321,
      "Ġapprofi": 8322,
      "Ġtematiche": 8323,
      "erno": 8324,
      "ĠMarina": 8325,
      "Ġfirmato": 8326,
      "sura": 8327,
      "ĠStan": 8328,
      "ĠCana": 8329,
      "Ġ2002": 8330,
      "Ġcomprensione": 8331,
      "Ġumane": 8332,
      "ĠJuventus": 8333,
      "busti": 8334,
      "ĠDigi": 8335,
      "osser": 8336,
      "Ġscorsi": 8337,
      "Ġmistero": 8338,
      "Ġgusti": 8339,
      "Ġemi": 8340,
      "Ġacquistato": 8341,
      "Ġsoccorso": 8342,
      "maco": 8343,
      "bol": 8344,
      "Ġdeca": 8345,
      "Roma": 8346,
      "Ġincredibile": 8347,
      "ologica": 8348,
      "Ġmorire": 8349,
      "Ġvicende": 8350,
      "vino": 8351,
      "Ġcircuito": 8352,
      "ĠPala": 8353,
      "Ġiner": 8354,
      "Ġ48": 8355,
      "Ġesistenti": 8356,
      "Ġaller": 8357,
      "Ġreato": 8358,
      "Ġintegrazione": 8359,
      "ĠRes": 8360,
      "Ġcrista": 8361,
      "Ġonda": 8362,
      "Lu": 8363,
      "Ġcampagne": 8364,
      "ama": 8365,
      "Ġricostruzione": 8366,
      "Ġufficialmente": 8367,
      "mocra": 8368,
      "ĠProprio": 8369,
      "ĠEnrico": 8370,
      "day": 8371,
      "ĠDesign": 8372,
      "Ġrapido": 8373,
      "CHI": 8374,
      "ficando": 8375,
      "Ġvillaggio": 8376,
      "ĠStoria": 8377,
      "Ġcoopera": 8378,
      "ĠSpirito": 8379,
      "43": 8380,
      "Ġcel": 8381,
      "Ġrossa": 8382,
      "Ġservire": 8383,
      "Ġpilota": 8384,
      "Ġinviato": 8385,
      "Ġprovinciale": 8386,
      "mpia": 8387,
      "Ġcompiere": 8388,
      "piÃ¹": 8389,
      "Ġcontinuano": 8390,
      "Go": 8391,
      "Ġdono": 8392,
      "Ġunici": 8393,
      "Ġparlano": 8394,
      "TALI": 8395,
      "Ġeventualmente": 8396,
      "Ġterze": 8397,
      "grafo": 8398,
      "Ġfree": 8399,
      "ENZA": 8400,
      "2013": 8401,
      "entazione": 8402,
      "Ġclic": 8403,
      "Ġelevata": 8404,
      "ĠSindaco": 8405,
      "zionalitÃł": 8406,
      "Ġneuro": 8407,
      "Ġdisabili": 8408,
      "fero": 8409,
      "Ġriflettere": 8410,
      "2018": 8411,
      "Ġconsultare": 8412,
      "tions": 8413,
      "Ġaffetti": 8414,
      "!)": 8415,
      "Ġsfide": 8416,
      "Ġannuale": 8417,
      "Ġmoderni": 8418,
      "gamo": 8419,
      "fin": 8420,
      "Ġfresca": 8421,
      "Ġassociazione": 8422,
      "Ġassicurare": 8423,
      "Ġsuddivi": 8424,
      "ĠME": 8425,
      "estici": 8426,
      "CU": 8427,
      "ĠComp": 8428,
      "Ġavviso": 8429,
      "Ġrigoro": 8430,
      "goli": 8431,
      "Ġconcorrenza": 8432,
      "Ġepisodio": 8433,
      "ĠPadova": 8434,
      "Ġzo": 8435,
      "ĠOne": 8436,
      "Ġcarabinieri": 8437,
      "Ġaccordi": 8438,
      "Ġnave": 8439,
      "Scri": 8440,
      "Ġsbar": 8441,
      "Ġaffian": 8442,
      "Ġfronti": 8443,
      "Ġesce": 8444,
      "Ġsana": 8445,
      "Ġingegn": 8446,
      "Ġdose": 8447,
      "Men": 8448,
      "lavoro": 8449,
      "ĠKi": 8450,
      "tas": 8451,
      "essato": 8452,
      "Ġcasu": 8453,
      "Ġsai": 8454,
      "Ġdovesse": 8455,
      "bot": 8456,
      "Ġfenomeni": 8457,
      "Ġpeccato": 8458,
      "Ġopportuno": 8459,
      "To": 8460,
      "Ġdisplay": 8461,
      "ordi": 8462,
      "ĠNuova": 8463,
      "Ġconcerti": 8464,
      "ĠClaudio": 8465,
      "ĠCerto": 8466,
      "Ġfinanziario": 8467,
      "Ġpreli": 8468,
      "Ġvivi": 8469,
      "Ġospita": 8470,
      "Ġcorrere": 8471,
      "Ġlogo": 8472,
      "ĠMarche": 8473,
      "Ġpesanti": 8474,
      "ĠprioritÃł": 8475,
      "Ġagrico": 8476,
      "Ġcompresi": 8477,
      "stati": 8478,
      "Ġoccidentale": 8479,
      "Ġonde": 8480,
      "cno": 8481,
      "ĠUr": 8482,
      "esposizione": 8483,
      "ĠTutte": 8484,
      "ĠMare": 8485,
      "Ġriparti": 8486,
      "Ġcala": 8487,
      "ttor": 8488,
      "ĠAss": 8489,
      "Ġaggiornato": 8490,
      "ĠCity": 8491,
      "Ġdifferenzia": 8492,
      "Ġpassaggi": 8493,
      "Ġgrasso": 8494,
      "Ġsettiman": 8495,
      "interpre": 8496,
      "Ġaggiornamenti": 8497,
      "Ġcomplica": 8498,
      "hoto": 8499,
      "Ġcantante": 8500,
      "Ġsceglie": 8501,
      "Ġpru": 8502,
      "Ġinnamo": 8503,
      "miamo": 8504,
      "Ġbis": 8505,
      "Ġpapa": 8506,
      "ospedale": 8507,
      "orge": 8508,
      "Ġrilass": 8509,
      "Ġcollezioni": 8510,
      "Ġospedali": 8511,
      "matiche": 8512,
      "ĠprobabilitÃł": 8513,
      "way": 8514,
      "Ġdisegni": 8515,
      "Ġ*": 8516,
      "Ġtasse": 8517,
      "Ġborse": 8518,
      "Ġvere": 8519,
      "essori": 8520,
      "Ġpossiede": 8521,
      "viluppo": 8522,
      "Ġpatologie": 8523,
      "Ġleggera": 8524,
      "effica": 8525,
      "Ġriposo": 8526,
      "Ġpositiva": 8527,
      "Ġapparente": 8528,
      "Ġsottolineato": 8529,
      "Ġgiapponese": 8530,
      "Ġpotesse": 8531,
      "Ġsorella": 8532,
      "Ġtocco": 8533,
      "ENTE": 8534,
      "gibile": 8535,
      "Ġfotografie": 8536,
      "cket": 8537,
      "vina": 8538,
      "Ġmigranti": 8539,
      "ffice": 8540,
      "Ġprecedenza": 8541,
      "Ġcristiani": 8542,
      "Ġporre": 8543,
      "ĠCine": 8544,
      "Ġaccura": 8545,
      "teci": 8546,
      "Ġcompra": 8547,
      "Ġtira": 8548,
      "Ufficio": 8549,
      "iner": 8550,
      "inea": 8551,
      "ĠParma": 8552,
      "Ġtrasparenza": 8553,
      "Ġmedica": 8554,
      "Ġmaglia": 8555,
      "Ġscienzia": 8556,
      "ĠBio": 8557,
      "Ġrito": 8558,
      "Ġpuro": 8559,
      "cha": 8560,
      "Ġminimi": 8561,
      "ettati": 8562,
      "Ġseri": 8563,
      "Ġevoluzione": 8564,
      "Ġmerce": 8565,
      "ĠcontinuitÃł": 8566,
      "teni": 8567,
      "tecni": 8568,
      "Ġraccontato": 8569,
      "Ġtalento": 8570,
      "umero": 8571,
      "Ġsuolo": 8572,
      "Ġcostretto": 8573,
      "Ġdiceva": 8574,
      "Ġconcer": 8575,
      "kin": 8576,
      "ĠporterÃł": 8577,
      "Ġmezza": 8578,
      "Ġconsumi": 8579,
      "esponsa": 8580,
      "ĠMess": 8581,
      "ĠNelle": 8582,
      "ĠMondiale": 8583,
      "Ġstima": 8584,
      "gricoltura": 8585,
      "mag": 8586,
      "conomi": 8587,
      "ssazione": 8588,
      "Ġcatalogo": 8589,
      "Ġinclude": 8590,
      "Ġnegativo": 8591,
      "ica": 8592,
      "Ġprevenire": 8593,
      "okie": 8594,
      "tory": 8595,
      "Ġinsa": 8596,
      "Ġrecipro": 8597,
      "Ġbambina": 8598,
      "ĠfinchÃ©": 8599,
      "Ġpassword": 8600,
      "Ġ33": 8601,
      "ĠData": 8602,
      "Ġagis": 8603,
      "edificio": 8604,
      "han": 8605,
      "tring": 8606,
      "Ġavrete": 8607,
      "impatto": 8608,
      "Ġprolun": 8609,
      "Ġconseguente": 8610,
      "Ġgratuiti": 8611,
      "Ġverdure": 8612,
      "ĠSenato": 8613,
      "GE": 8614,
      "ĠGlo": 8615,
      "85": 8616,
      "Ġsalire": 8617,
      "ĠGabri": 8618,
      "tio": 8619,
      "Ġenergie": 8620,
      "ĠQuali": 8621,
      "Noi": 8622,
      "Ġmancare": 8623,
      "ĠBasi": 8624,
      "cciato": 8625,
      "ĠĊ": 8626,
      "Ġtrasformare": 8627,
      "Ġstabile": 8628,
      "Ġciascuna": 8629,
      "trÃ²": 8630,
      "Ġreparto": 8631,
      "ĠCatania": 8632,
      "Ġpreca": 8633,
      "Ġproprietari": 8634,
      "Ġprestito": 8635,
      "Ġprofessore": 8636,
      "ĠAlex": 8637,
      "Ġing": 8638,
      "Ġdegu": 8639,
      "Ġpiattaforme": 8640,
      "giati": 8641,
      "affi": 8642,
      "infanzia": 8643,
      "ĠfacoltÃł": 8644,
      "Ġacciaio": 8645,
      "Ġriceve": 8646,
      "Ġcuri": 8647,
      "ttuali": 8648,
      "Ġeffettuata": 8649,
      "Ġalcolismo": 8650,
      "eratore": 8651,
      "ĠÃ": 8652,
      "Ġsuccessive": 8653,
      "vori": 8654,
      "Ġvalorizzazione": 8655,
      "Ġprossime": 8656,
      "riamente": 8657,
      "vre": 8658,
      "Ġstella": 8659,
      "ĠMedio": 8660,
      "ĠPartito": 8661,
      "ferenza": 8662,
      "etre": 8663,
      "Ġsessuali": 8664,
      "Ġformare": 8665,
      "Ġcontemporaneamente": 8666,
      "Ġpoteri": 8667,
      "Ġesserci": 8668,
      "ther": 8669,
      "Ġpreventivo": 8670,
      "gola": 8671,
      "Acqu": 8672,
      "ĠbensÃ¬": 8673,
      "ampia": 8674,
      "Ġriscaldamento": 8675,
      "dei": 8676,
      "ash": 8677,
      "Ġstabilito": 8678,
      "Ġstomaco": 8679,
      "Ġpassata": 8680,
      "tanea": 8681,
      "Ġpellicola": 8682,
      "Ġprestigi": 8683,
      "alti": 8684,
      "RAN": 8685,
      "Ġmanifes": 8686,
      "imposta": 8687,
      "Ġquaran": 8688,
      "oo": 8689,
      "perto": 8690,
      "Ġdisagio": 8691,
      "dette": 8692,
      "agenzia": 8693,
      "stronomi": 8694,
      "'.": 8695,
      "ziare": 8696,
      "tell": 8697,
      "utica": 8698,
      "Ġodi": 8699,
      "Ġraccolto": 8700,
      "ros": 8701,
      "tail": 8702,
      "Infine": 8703,
      "Ġstabilire": 8704,
      "ulto": 8705,
      "Ġcoinci": 8706,
      "Ġsov": 8707,
      "Ġmassaggio": 8708,
      "grafiche": 8709,
      "Ġfermo": 8710,
      "ĠEs": 8711,
      "Ġfinita": 8712,
      "Ġforniti": 8713,
      "ab": 8714,
      "ĠCommer": 8715,
      "Ġinizialmente": 8716,
      "Ġgiornale": 8717,
      "Ġfuturi": 8718,
      "Ġatleti": 8719,
      "Ġvorrebbe": 8720,
      "Ġpotenti": 8721,
      "ĠCompa": 8722,
      "terale": 8723,
      "FF": 8724,
      "Ġsussi": 8725,
      "ĠHu": 8726,
      "Ġrelativamente": 8727,
      "yn": 8728,
      "iscrizione": 8729,
      "Ġecolo": 8730,
      "Ale": 8731,
      "Ġdebu": 8732,
      "Ġindividui": 8733,
      "Ġsfondo": 8734,
      "Ġparadi": 8735,
      "Ġbiglietti": 8736,
      "Ġincora": 8737,
      "Ġpenale": 8738,
      "Ġproteine": 8739,
      "Ġprobabile": 8740,
      "erÃ²": 8741,
      "Ġammirare": 8742,
      "Ġtenendo": 8743,
      "Ġcalcolo": 8744,
      "ccademia": 8745,
      "cir": 8746,
      "Ġsignora": 8747,
      "Ġcolpe": 8748,
      "Ġsegnali": 8749,
      "Ġrispettivamente": 8750,
      "ĠciviltÃł": 8751,
      "Ġdirigenti": 8752,
      "stano": 8753,
      "Ġpas": 8754,
      "Ġinfo": 8755,
      "organismo": 8756,
      "Ġsh": 8757,
      "Ġvenivano": 8758,
      "Ġsituato": 8759,
      "ronaca": 8760,
      "Ġequipa": 8761,
      "Ġ120": 8762,
      "Ġtrovo": 8763,
      "now": 8764,
      "giosi": 8765,
      "oolrich": 8766,
      "Ġtener": 8767,
      "Ġmito": 8768,
      "Ġconcentrazione": 8769,
      "Ġsessione": 8770,
      "ĠMolti": 8771,
      "96": 8772,
      "Ġprezioso": 8773,
      "Ġpubblicati": 8774,
      "Ġinsu": 8775,
      "curi": 8776,
      "ham": 8777,
      "Ġconversa": 8778,
      "Ġintegrato": 8779,
      "ttra": 8780,
      "trin": 8781,
      "dis": 8782,
      "ING": 8783,
      "Ġoperare": 8784,
      "Ġfedeli": 8785,
      "Ed": 8786,
      "Ġtalmente": 8787,
      "Ġ75": 8788,
      "male": 8789,
      "ĠBur": 8790,
      "Ġanticipo": 8791,
      "cultura": 8792,
      "Ġefficiente": 8793,
      "Ġinstallare": 8794,
      "ficano": 8795,
      "Ġcrescente": 8796,
      "ĠInstagram": 8797,
      "stata": 8798,
      "minati": 8799,
      "Ġcostituiscono": 8800,
      "chestra": 8801,
      "ĠSalvatore": 8802,
      "ĠCentra": 8803,
      "Ġsapori": 8804,
      "Ġalco": 8805,
      "ĠDonne": 8806,
      "itali": 8807,
      "vanza": 8808,
      "ington": 8809,
      "ĠCE": 8810,
      "Ġstreaming": 8811,
      "Ġocchia": 8812,
      "Ġrilievo": 8813,
      "ĠEss": 8814,
      "Ġpuni": 8815,
      "inverno": 8816,
      "Ġ37": 8817,
      "varsi": 8818,
      "ĠTI": 8819,
      "ĠAllora": 8820,
      "colla": 8821,
      "ĠGuar": 8822,
      "Ġproseguire": 8823,
      "Ġverb": 8824,
      "Ġsten": 8825,
      "41": 8826,
      "ĠUmb": 8827,
      "Ġcontattare": 8828,
      "Ġnormali": 8829,
      "bita": 8830,
      "onario": 8831,
      "ĠVati": 8832,
      "ĠTom": 8833,
      "Ġricordato": 8834,
      "Ġdoccia": 8835,
      "Ġpregiudi": 8836,
      "Ġvide": 8837,
      "camere": 8838,
      "Ġpercepi": 8839,
      "Ġsimu": 8840,
      "ĠPonte": 8841,
      "2012": 8842,
      "Ġped": 8843,
      "Ġsuperato": 8844,
      "Ġdeposito": 8845,
      "lon": 8846,
      "Ġnemici": 8847,
      "Ġtoni": 8848,
      "Pubbli": 8849,
      "Ġpositivi": 8850,
      "97": 8851,
      "Ġindicati": 8852,
      "Ġfame": 8853,
      "Ġmemori": 8854,
      "Ġcombinazione": 8855,
      "Ġartista": 8856,
      "Ġinutile": 8857,
      "Ġselezionare": 8858,
      "Ġcompor": 8859,
      "Ġconcreto": 8860,
      "ude": 8861,
      "Ġofferti": 8862,
      "ĠpermetterÃł": 8863,
      "Ġpopoli": 8864,
      "Ġtetto": 8865,
      "Ġamare": 8866,
      "ĠContin": 8867,
      "ĠIS": 8868,
      "Ġspettacoli": 8869,
      "ĠDonna": 8870,
      "Ġrisal": 8871,
      "Ġintrapren": 8872,
      "Ġprofondamente": 8873,
      "Ġimpegni": 8874,
      "port": 8875,
      "minata": 8876,
      "America": 8877,
      "Ġaggressi": 8878,
      "ĠsemplicitÃł": 8879,
      "cutivo": 8880,
      "ĠAI": 8881,
      "drome": 8882,
      "Ġaperte": 8883,
      "Ġbasata": 8884,
      "Ġsconfitta": 8885,
      "Ġfredda": 8886,
      "issima": 8887,
      "ĠAltri": 8888,
      "Ġaut": 8889,
      "zionario": 8890,
      "Ġcomplessivo": 8891,
      "Ġ00": 8892,
      "Ġintenzione": 8893,
      "Ġdestinati": 8894,
      "BO": 8895,
      "eld": 8896,
      "issione": 8897,
      "clusione": 8898,
      "Ġsottolineare": 8899,
      "Ġstrettamente": 8900,
      "Ġdiretti": 8901,
      "Ġconcreti": 8902,
      "Hotel": 8903,
      "Ġfarmaco": 8904,
      "ĠAm": 8905,
      "!âĢĿ": 8906,
      "Ġriusc": 8907,
      "DS": 8908,
      "Ġcami": 8909,
      "Ġpizzi": 8910,
      "Ġfretta": 8911,
      "gale": 8912,
      "Ġavevamo": 8913,
      "Ġregolarmente": 8914,
      "Ġmuscoli": 8915,
      "Ġrinunciare": 8916,
      "dam": 8917,
      "ĠMona": 8918,
      "Ġrisparmiare": 8919,
      "guendo": 8920,
      "Ġcorpi": 8921,
      "oggetto": 8922,
      "ĠpapÃł": 8923,
      "Ġdefinitivamente": 8924,
      "Ġsapi": 8925,
      "Ġricostrui": 8926,
      "Ġvalle": 8927,
      "Ġcompletare": 8928,
      "Ġsinis": 8929,
      "Ġscendere": 8930,
      "introduzione": 8931,
      "attacco": 8932,
      "Ġ65": 8933,
      "ĠMaurizio": 8934,
      "Ġresidenza": 8935,
      ":||": 8936,
      "ĠFia": 8937,
      "----------------": 8938,
      "Ġtelevisione": 8939,
      "Ġsalve": 8940,
      "antica": 8941,
      "Ġusi": 8942,
      "Ġautonomia": 8943,
      "ĠMadonna": 8944,
      "Ġimple": 8945,
      "Foto": 8946,
      "Ġimpegnati": 8947,
      "Ġmg": 8948,
      "erita": 8949,
      "Ġcinqu": 8950,
      "Ġdownload": 8951,
      "universitÃł": 8952,
      "Ġsingole": 8953,
      "Ġrimasta": 8954,
      "Ġaggra": 8955,
      "Ġesprime": 8956,
      "ssemblea": 8957,
      "assenza": 8958,
      "Ġ180": 8959,
      "Ġprofumo": 8960,
      "ĠCas": 8961,
      "ĠFederico": 8962,
      "Ġpressi": 8963,
      "tete": 8964,
      "ĠAssocia": 8965,
      "ggire": 8966,
      "ĠCastello": 8967,
      "Ġspessore": 8968,
      "Ġdormire": 8969,
      "RIA": 8970,
      "Ġbatteri": 8971,
      "ucci": 8972,
      "set": 8973,
      "enatore": 8974,
      "Ġvor": 8975,
      "ficazioni": 8976,
      "Ġsostituzione": 8977,
      "esecuzione": 8978,
      "Ġcra": 8979,
      "ossibilitÃł": 8980,
      "Ġomo": 8981,
      "fran": 8982,
      "Ġsosta": 8983,
      "Ġpersonalmente": 8984,
      "Ġsembrare": 8985,
      "Nei": 8986,
      "ĠEppure": 8987,
      "ĠComunale": 8988,
      "67": 8989,
      "universo": 8990,
      "ipotesi": 8991,
      "TÃĢ": 8992,
      "diti": 8993,
      "df": 8994,
      "Ġlingu": 8995,
      "Ġsofferenza": 8996,
      "42": 8997,
      "Ġsonda": 8998,
      "manu": 8999,
      "Ai": 9000,
      "Ġsolleci": 9001,
      "Ġdinamica": 9002,
      "Ġcertificazione": 9003,
      "98": 9004,
      "Ġtogliere": 9005,
      "ramento": 9006,
      "dol": 9007,
      "Ġsignificativo": 9008,
      "ĠJack": 9009,
      "Ġestrema": 9010,
      "Ġsostenuto": 9011,
      "ETTO": 9012,
      "65": 9013,
      "ĠFami": 9014,
      "Ġsucco": 9015,
      "Ġcandida": 9016,
      "back": 9017,
      "Ġdirigente": 9018,
      "Ġlavorano": 9019,
      "Ġscontro": 9020,
      "Ġcommissa": 9021,
      "ĠCali": 9022,
      "Ġcircolare": 9023,
      "Ġcompiti": 9024,
      "Ġmagia": 9025,
      "Ġrilascio": 9026,
      "ag": 9027,
      "ĠTorre": 9028,
      "ranei": 9029,
      "Ġrazzi": 9030,
      "Ġinterne": 9031,
      "Ġtossi": 9032,
      "Ġcresce": 9033,
      "Ġusata": 9034,
      "Ġbianchi": 9035,
      "aly": 9036,
      "Ġallun": 9037,
      "Ġgino": 9038,
      "Ġromanti": 9039,
      "Ġaran": 9040,
      "ĠArri": 9041,
      "Ġintito": 9042,
      "Ġdelicato": 9043,
      "GRA": 9044,
      "pers": 9045,
      "Ġsbagliato": 9046,
      "ĠLet": 9047,
      "Ġesami": 9048,
      "Ġeva": 9049,
      "Ġalternative": 9050,
      "Ġnatali": 9051,
      "Ġpepe": 9052,
      "Ġrichiesti": 9053,
      "dd": 9054,
      "ĠMovimento": 9055,
      "Ġconverti": 9056,
      "Ġmettono": 9057,
      "Ġevidenza": 9058,
      "ĠNegli": 9059,
      "gliari": 9060,
      "Ġtestimonia": 9061,
      "Ġsebbene": 9062,
      "ĠMel": 9063,
      "Ġcomodo": 9064,
      "ĠpovertÃł": 9065,
      "opini": 9066,
      "torni": 9067,
      "Ġaffari": 9068,
      "Ġcocco": 9069,
      "Alle": 9070,
      "uore": 9071,
      "Ġromana": 9072,
      "Ġcalcia": 9073,
      "ĠPiemonte": 9074,
      "Ġefficienza": 9075,
      "ĠmenÃ¹": 9076,
[...]
